#version: 0.2
h e
Ġ t
Ġ a
Ġ s
Ġ w
n d
Ġt he
e d
Ġa nd
Ġt o
Ġ b
i n
Ġ h
r e
Ġw a
o u
Ġ f
i t
Ġ T
Ġ c
Ġ l
Ġ d
e r
Ġ he
Ġ m
Ġ p
Ġwa s
o m
Ġ o
ĠT he
a y
a r
i s
in g
i l
Ġ g
i d
Ġ S
a t
e n
Ġ n
Ġs a
Ġh a
a n
i m
o r
o n
Ġ it
Ġ H
Ġt h
l l
Ġ "
l e
o t
ĠS he
Ġhe r
e t
i r
ĠThe y
ĠH e
e s
Ġ in
v er
u t
o w
c k
Ġ L
Ġ y
Ġ e
Ġ u
l d
o o
Ġsa id
il y
i g
Ġ r
Ġ I
Ġb e
a m
Ġs t
k e
c e
v e
it h
p p
Ġs he
Ġw ith
Ġy ou
Ġo n
O n
ĠL ily
k ed
r i
Ġo f
Ġp l
n t
Ġ B
a d
Ġh is
Ġs o
ver y
Ġd ay
Ġth at
Ġpl ay
Ġu p
Ġthe y
Ġha d
s t
Ġw e
Ġm om
Ġ M
Ġf or
e l
u n
' s
ou ld
m y
Ġl i
c h
Ġwa nt
Ġha pp
en t
Ġs h
it t
ou t
he r
Ġn ot
Ġd o
om e
s e
Ġ very
e nd
l y
a ll
ou nd
Ġw h
Ġ k
im e
itt le
Ġt ime
a l
Ġn e
Ġl ittle
Ġ is
h t
Ġthe re
ĠI t
Ġ A
Ġb ig
Ġhapp y
Ġ re
Ġs m
Ġb ut
. "
r y
Ġsa w
Ġa n
r a
ri end
Ġf riend
Ġa s
a ck
a ke
On e
id e
! "
' t
u g
ĠT im
Ġl oo
Ġwe re
t er
v ed
Ġl o
o re
On ce
Ġ One
Ġs e
Ġto o
Ġb o
Ġh im
Ġg o
Ġa re
e c
Ġ J
il l
Ġwant ed
Ġ j
ar d
Ġthe m
ir l
Ġup on
Ġthe ir
Ġa t
Ġg irl
Ġ out
ĠB en
u r
Ġd id
i nd
ĠT om
ay s
f u
Ġs p
Ġsm il
Ġha ve
Ġc ould
he n
a in
he d
ar t
Ġc an
r om
Ġw ent
Ġe x
Ġ W
i c
Ġa r
l p
? "
oo d
ĠB ut
fu l
Ġfriend s
Ġn am
ig ht
Ġk n
h ing
Ġhe lp
Ġa ll
Y ou
u m
ar k
on e
Ġb ack
Ġf un
Ġc l
a re
Ġn o
Ġl e
ĠTim my
o p
Ġs c
Ġnam ed
Ġa l
el t
Ġsmil ed
ou g
Ġm an
Ġlo ved
Ġto y
s ide
Ġli ke
i ck
Ġas ked
Ġf elt
Ġf e
Ġm e
Ġse e
Ġloo ked
Ġs ome
am e
Ġr o
Ġar ound
om et
Ġb r
u re
i ce
Ġb ir
g et
Ġbo y
Ġw ould
on g
Ġst art
s s
Ġbir d
Ġf a
Ġs omet
w ay
ĠM om
, "
Ġm ake
Ġ You
ing s
Ġa g
ad e
Ġs ays
Ġwh at
d d
Ġw or
Ã ¢
â Ĥ
âĤ ¬
k ing
ow n
Ġr an
Ġa way
get her
Ġt re
i e
ar ed
a g
ou d
Ġc ar
Ġstart ed
Ġm ade
i f
Ġto gether
t her
Ġp ark
Ġc o
Ġsomet hing
Ġsa d
Ġo ther
it ed
Ġne w
Ġf rom
Ġp ut
e ll
oo k
Ġh ug
Ġl a
Ġp r
a ch
b le
Ġag ain
Ġ E
Ġg ood
Ġex c
Ġm u
Ġh ome
Ġ F
e p
Ġf l
ri ed
Ġw hen
Ġwh o
h at
es t
Ġc h
Ġf ound
Ġthe n
pp ed
Ġd ec
a s
n n
Ġg et
Ġwa l
Ġplay ing
Ġ D
q u
Ġs w
oug ht
Ġli ked
u ck
Ġth ings
p l
all y
ou s
ĠS u
ĠS am
Ġg ot
r o
Ġb l
ar a
Ġyou r
Ġexc ited
Ġdo g
Ġc ame
a ve
id ed
a x
Ġe very
Ġdec ided
nn a
Ġsc ared
Ġ v
u st
Ġd own
Ġc are
ou se
Ġon e
Ġf ind
is t
a p
Ġbe c
n y
Ġth an
Ġw ill
Ġfe el
Ġm y
Ġa b
Ġd ad
ar n
Ġloo k
ou r
ĠM ax
Ġg r
Ġg ra
er s
es s
Ġ ke
Ġtoy s
Ġp o
Ġdid n
w ays
Ġtoo k
f e
Ġb all
nd er
Ġab out
ĠS ara
Ġal ways
Ġmom my
ĠA nna
Ġl ot
an t
b b
Ġkn e
Ġb u
is e
Ġtre e
Ġout side
Ġth ought
Ġt a
Ġm ore
Ġle arn
en ed
it e
re t
ĠS o
Ġh o
Ġkn ow
Ġp u
Ġs or
c hed
g ed
ec i
Ġin t
Ġc at
Ġo ld
ĠW hen
Ġt ake
Ġla ug
i a
i ve
Ġkne w
Ġsp eci
Ġspeci al
Ġan y
Ġp e
ĠH er
Ġsor ry
dd en
f ter
a u
Ġh ow
in k
Ġsh ow
m a
Ġr un
is h
Ġt r
dden ly
Ġs l
Ġmu ch
Ġt w
a nd
Ġha nd
Ġo r
ĠJ o
Ġh ouse
ĠE very
Ġo p
Ġwa ter
Ġm o
v en
Ġt ried
ĠJ ack
Ġs k
Ġs un
Ġcl o
an k
Ġint o
Ġin side
at e
ĠW e
um p
Ġto ld
he re
Ġg ave
Ġe ach
t y
Ġpr oud
Ġe at
Ġ if
Ġro om
Ġhe ard
Ġth is
a ce
Ġo ver
Ġ en
Ġ qu
Ġne ver
Ġp ret
Ġcould n
ot her
d y
ĠM ia
Ġplay ed
a k
au se
b y
Ġp ick
i on
Ġhug ged
et ter
Ġg re
g e
ĠSu ddenly
Ġex pl
Ġj ust
Ġc om
Ġbo x
ĠThe n
Ġn ice
Ġne ed
Ġman y
ot h
u e
Ġwa t
ĠF rom
Ġof f
' m
ĠA nd
Ġbec ause
Ġst r
il e
g ry
Ġsm all
ĠH is
Ġf o
v ing
i z
Ġl ong
in e
Ġs n
s ed
im al
Ġj o
Ġan imal
Ġbe ar
ur t
Ġt ry
or t
u c
Ġlearn ed
oug h
Ġlo ve
Ġu nt
Ġ C
s el
il d
Ġk ind
Ġunt il
Ġb etter
f t
Ġs ay
Ġfl ow
Ġd on
Ġ im
ur n
Ġc le
ad y
Ġe nd
Ġb est
v es
Ġc all
Y es
Ġt e
ar s
re am
Ġcare ful
Ġfa st
ur p
a ut
Ġa d
v ent
Ġ Ã¢
ard en
Ġg arden
Ġf i
i es
b er
a se
Ġc u
Ġbe aut
Ġl oud
Ġj ump
Ġb ra
Ġc he
Ġthan ked
Ġsk y
Ġlaug hed
e m
Ġe ven
p t
Ġb y
T h
Ġl ist
in y
ll y
sel f
w n
Ġg l
Ġh urt
Ġc ome
Å ĵ
Ġh ard
Ġst ill
le w
Ġbeaut i
Ġanimal s
Ġbeauti ful
Ġwa y
Ġw o
Ġf am
Ġlot s
Ġu nder
Ġr a
Ġl et
b e
he s
c t
s h
Ġb ad
ec t
n ing
Ġb oth
Ġsa fe
I t
Ġst ay
Ġ P
oo l
k ay
Ġco l
o ck
Ġb ook
a st
op le
Ġan gry
Ġre m
Ġsh ould
Ġim p
N o
Ġli ved
re e
ĠA s
is hed
Ġtw o
re ss
Ġit s
Ġbra ve
Ġr ed
Ġwal ked
Ġpe ople
ig h
an e
urp r
Ġfam ily
ĠA fter
Ġsh are
Ġs u
uc y
Ġst or
Ġf lew
Ġs urpr
Ġf in
o b
Ġso on
ĠL ucy
Ġd an
i p
L et
Ġf ly
Ġcall ed
f ore
x t
l ed
Ġdo ll
dd ed
Ġp ic
Ġcle an
Ġke pt
Ġf ore
Ġpret ty
is ed
ĠJo h
Ġdo or
Ġro ck
Ġgo ing
ĠD ad
Ġsh iny
Ġke ep
Ġno ise
Ġn ow
Ġc ry
Ġ G
Ġd ra
Ġw ind
s o
Ġre al
ĠMom my
Ġt urn
Ġop ened
um my
ar y
Ġbe fore
Ġ ide
Ġal so
Ġad vent
âĤ¬ â
le s
Ġgr ound
ag e
Ġst o
Ġc on
il ly
i ed
Ġe y
Ġha s
Ġf r
W hat
Ġexpl ore
Ġide a
ĠS p
Ġcol or
Ġf ar
Ġno dded
k es
im b
Ġwa r
Ġu n
ay be
t h
Ġcl imb
Ġne xt
Ġpick ed
t hing
t ure
Ġm a
Ġwh ile
Ġsmil e
o y
Ġfeel ing
e et
Ħ ¢
âĤ¬â Ħ¢
Ġb ed
Ġth r
Ġwal king
Ġtr uck
Th ank
g er
ĠJoh n
Ġth ink
f f
Ġw r
Ġadvent ure
ĠB ob
Ġbe ing
Ġg ive
Ġf ood
T hat
Ġpic ture
Ġlist en
Ġto w
Ġd if
Ġbr o
Ġt ra
ic ed
Ġb re
Ġclo s
t ed
a c
Ġey es
i ous
j oy
Ġwa it
Ġa fter
Ġo wn
ug ht
Ġsto pped
ĠSp ot
Ġ N
Ġd el
Ġflow ers
Ġloo king
t ing
Ġsh out
Ġre pl
Ġhe ad
ĠSu e
Ġhand s
em ber
Ġwal k
Ġ R
Ġbl ue
Ġf ish
Ġv o
L ily
Ġgre at
Ġme an
Ġe ver
ir st
Ġsl ide
iz ed
Ġimp ort
Ġne ar
Ġas k
Ġu s
Ġen joy
a ble
le ase
Ġs ound
Ġo kay
o on
Ġfore st
Ġd is
Ġnot iced
ll ow
Ġrem ember
bb it
Ġr ain
Ġr u
Ġa pp
Ġqu ick
Ġto u
Ġd e
Ġwat ch
Ġimport ant
W e
Ġwo nder
Ġst ick
Ġshow ed
Ġt al
Ġbo at
Ġ our
ma z
Ġwor k
Ġa maz
Ġrepl ied
bb ed
Ġa c
fe re
Ġr ight
Ġdif fere
by e
Ġstr ong
Ġfo llow
Ġs qu
Ġdo es
Ġbr ight
Ġra bbit
Ġw here
Ġevery one
g an
Ġu se
d ay
c o
Ġwat ched
L ook
Ġy ell
Ġh op
il a
at h
Ġfa ce
Ġm or
Ġa m
er ed
Ġd ress
Ġquick ly
Ġdiffere nt
ĠT h
Ġbe en
Ġvo ice
Ġcu ri
ĠSara h
Ġbec ame
an ge
Ġs ure
Ġy e
n g
a ught
Ġpl ace
Ġc ook
Ġst ore
Ġch ild
Ġh igh
Ġc ake
Ġwar m
Ġgood bye
Ġfor g
nd ma
Ġm ag
Ġt ell
Ġbl ock
le ep
Ġclos er
m ore
Ġany more
Ġcuri ous
it c
ĠJ ane
a ss
Ġfa v
ou nt
Ġn ight
Ġbe l
Ġpu ll
e y
im es
Ġop en
Ġhe re
Ġf irst
un ny
Ġ z
Ġfe ll
is s
C an
ir ed
a ched
Ġp ain
Ġle a
or n
Ġse es
Ġk id
Ġsw eet
Ġgra bbed
Ġbut ter
Ġon ly
u ll
itc hen
Ġk itchen
Ġth ree
Ġsa nd
Ġfl o
Ġst op
Ġbird s
ĠI n
Ġm on
Ġhelp ed
ĠT hat
Ġb it
Ġfi re
M om
Ġjump ed
Ġgl ad
Ġcon t
ĠD o
Ġb a
ĠEvery one
Ġhapp ened
is y
Ġc ra
Ġd r
Ġt ri
ĠL ila
Ġc r
Ġs ing
Ġgra ss
Ġshout ed
Ġbr other
ĠL et
Ġbe h
pp y
in s
Ġm ess
Ġl ady
Ġp er
Ġstor y
ak es
a ir
Ġreal ized
nt s
Ġre ached
Ġh at
Ġy ummy
Ġso ft
' re
Ġpret end
Ġat e
Ġha ving
Ġunder st
Ġdra w
Ġfav or
Ġg ame
Ġp ap
Ġfavor ite
Ġl ess
ĠC an
Ġpr in
Ġre st
Ġlook s
Ġc re
z y
at er
Ġb unny
Ġre ady
Ġth ing
k en
Ġthr ough
Ġma king
Ġp are
w here
Ġd uck
Ġcar s
ĠJo e
Ġmag ic
Ġc ut
Ġre ally
at her
Ġm um
W ow
Ġkid s
Ġtou ch
Ġt ired
Ġhim self
Ġfi x
Ġpo nd
Ġwor ld
Ġd one
Ġp rom
Ġcom ing
Ġwor ry
Ġc ried
Ġbe gan
Ġcat ch
Ġwa ved
T om
b o
Ġblock s
Ġwh y
Ġbutter f
Ġfun ny
fu lly
Ġho ld
Ġnam e
Ġha ir
Ġp art
Ġst e
Ġan other
Ġf ro
Ġflow er
st er
Ġu sed
one y
ed dy
re l
ig n
Ġf ill
ĠTom my
Ġta st
Ġgre en
ĠF in
Ġc ool
Ġse en
Ġli kes
i ent
Ġto p
i ver
Ġm ouse
Ġw ished
Ġdel ic
Ġthan k
Ġpare nts
Ġl ight
Ġflo or
Ġsw im
Ġdo ing
Ġpap er
o lly
Ġg i
h y
D on
m er
Ġb ag
Ġless on
Ġd ri
a isy
at ion
ard s
Ġsurpr ise
u ff
Ġbeh ind
Ġsm ell
Ġwind ow
ĠS ally
Ġb ow
Ġho pped
Ġre ad
Ġd ro
Ġs leep
" .
Ġho le
Ġd in
Ġyell ow
Ġd ark
i ke
Ġrun ning
Ġtre es
Ġwor ked
and y
Ġsh o
Ġw ood
Ġlaug h
re n
Ġsp ot
Ġf ull
Ġs at
Ġsw ing
u ed
el y
u s
ĠBen ny
re w
Ġ ice
Ġco ld
Ġhapp ily
Ġhe ar
u l
Ġwe ar
Ġlo st
H ell
Hell o
Ġsurpr ised
Ġremember ed
Ġ -
Ġs et
Ġsl ow
Ġye ars
Ġbutterf ly
Ġfro g
Ġbu y
Ġhe ld
Ġneed ed
on s
Ġwr ong
Ġcare fully
Ġany thing
ĠA t
Ġmo ve
ĠD aisy
Ġle ft
Ġsn ow
en s
ĠE m
Ġh un
Ġta ble
Ġt all
Ġfa ir
Ġd ream
Ġfollow ed
Ġd ir
ĠN ow
Ġbook s
Ġe l
Ġbu s
Ġ K
re ed
Ġh ot
Ġper f
Ġchild ren
Ġa ir
Ġp lease
Ġenjoy ed
c ess
Ġh ill
d s
Ġunderst and
Ġfin ished
Ġb ug
Ġfriend ly
Ġar ri
Ġh id
s p
Ġher self
Ġc ast
ĠFin ally
Ġclo se
in ed
Ġm ight
ĠT o
ro ss
Ġcont in
Ġforg ot
Ġel se
Ġar m
Ġbro ken
Ġdelic ious
Ġcolor s
l f
ĠG ra
ĠB illy
Ġbu ild
Ġwant s
Ġg ent
Ġre l
O K
ie ld
Ġm at
Ġs ong
as ure
Ġg one
a v
Ġarri ved
Ġba by
Ġsqu ir
Ġt ight
ĠJ im
Ġwa ll
n er
ĠJ en
Ġa ble
ĠThe re
Ġwonder ful
ro om
Ġsome one
Ġlea ves
Ġcre at
ĠTh is
Ġg u
Ġy es
Ġp at
Ġsquir rel
Ġfill ed
as k
Ġc ount
Ġag reed
i ch
e e
ĠM aybe
Ġcontin ued
ĠA my
Ġbre ak
Ġcook ies
Ġp ink
Ġli on
' ll
Ġpo in
Ġgra ndma
Ġv is
s hed
Ġf all
as h
Ġsc ary
ri es
Ġen ough
Ġf ight
Ġm akes
Ġhun gry
Ġmom ent
Ġsmil es
Ġsomet imes
Ġj u
Ġp i
ĠM olly
Ġget ting
Ġstay ed
an ce
Ġw et
ic y
Ġturn ed
r ow
Ġmor ning
Ġfin ally
Ġc ream
a pp
ĠW hat
Ġcast le
am a
Ġcom p
Ġother s
Ġlist ened
Ġpicture s
Ġclimb ed
Ġtry ing
Ġdin ner
Ġbe ach
Ġtal k
Ġm et
g on
Ġta il
o om
ou p
m an
Ġcl ot
a pped
r ot
e re
Ġball oon
c ed
Ġfe w
Ġclot hes
Ġamaz ing
Ġm other
Ġask s
uff y
Ġmu s
ke y
l c
r ed
Ġf ur
Ġpu ppy
Ġwh ite
en ce
ct or
Ġsa il
or ing
Ġp et
Ġperf ect
Ġm ar
Ġal one
Ġdad dy
O h
T he
Ġsp l
is ter
Ġs it
uck y
Ġpo l
Ġwas n
Ġbr ought
w l
Ġgr ow
d er
Ġevery thing
Ġpull ed
Ġwa ited
am p
ot t
Ġp ie
B ut
Ġdan ger
Ġwood s
at ed
Ġstr ange
Ġse ar
Ġjo y
Th is
Ġr ide
Ġw on
Ġde ep
ow er
Ġpl an
Ġsp ark
Ġro ll
Ġvis it
ĠJ ill
Ġrun s
Ġh ide
Ġfo x
Ġthink s
Ġle ave
et er
z z
Ġt eddy
M aybe
m e
o s
Ġli ving
Ġamaz ed
Ġs illy
Ġmus ic
g s
Ġcl oud
Ġtow ards
Ġtre at
ap e
O kay
e ver
Ġsh ar
ĠSo on
Ġown er
Ġp en
an g
m ed
Ġfly ing
is es
Ġp re
ug g
am es
Ġsh ared
th y
Ġla nd
Ġqu i
Ġprom ised
ĠA ll
Ġr ace
Ġm oney
ain ed
op e
ig g
Ġf ield
Ġs ister
Ġjo b
Ġpain t
Ġbro ke
ĠF l
Ġmor al
av y
ck et
Ġfast er
Ġpart y
c le
ec es
Ġgr ate
Ġs ide
Ġqui et
Ġl ake
un ch
Ġpi eces
Ġbr an
Ġb ott
Ġbel ie
i x
Ġwor ried
or m
Ġmu st
Ġgrate ful
s w
u it
Ġc andy
Ġre ach
Ġan sw
Ġcolor ful
Ġg if
Ġdan ce
ĠM r
z e
Ġtra in
Ġe le
Ġb ike
Ġtre asure
Ġbl ank
Ġcu p
ĠDad dy
Ġwe lc
Ġch o
o l
Ġbig ger
out h
Ġ ve
Ġslow ly
Ġdoll s
Ġsc ream
u ally
l ing
as ed
Ġm outh
Ġbl ack
Ġblank et
p h
Ġsm art
Mom my
Ġsn ack
Ġr iver
Ġb ar
Ġpr o
Ġsu ch
f ort
Ġdanger ous
Ġst u
i re
Ġn ap
le ss
Ġevery where
Ġe m
ck ed
Ġpl ant
ĠJ ust
Ġw in
Ġtow er
Ġp ot
Ġmon ster
Ġtw ins
Ġprin cess
Ġhelp ing
S ure
Ġth rew
Ġdir ty
Ġmagic al
Ġjo in
Ġmon key
Ġs ign
Ġj e
e ar
Ġcry ing
Ġp a
Ġdo ctor
i pped
s et
Ġbow l
ĠM ary
Ġhe avy
Ġbe e
Ġb ite
Ġwor ds
Ġhop ed
Ġcar rot
H i
d e
or ed
m ing
Ġfr uit
Ġdra gon
W hy
Ġmo st
Ġsp r
id ent
b ble
Ġsa me
Ġac c
ĠM ama
Ġac ross
Ġfar mer
Ġhe al
Ġdis app
B en
Ġclo sed
Ġfeel s
Ġp ass
Ġb ath
Ġst uck
Ġb uck
Ġh ig
Ġste pped
e ared
Ġcr ay
Ġte ac
Ġco ll
Ġbut t
Ġhe art
ch ool
Ġto wn
Ġst re
ĠGra ndma
Ġwould n
Ġc our
Ġm ix
Ġat t
Ġbr own
ask et
Ġb asket
Ġbelie ve
Ġch air
Ġpu shed
Ġeat ing
Ġs chool
is sed
it ing
A nna
Ġcour se
or d
Ġy ard
Ġh it
Ġwith out
Ġp ack
t s
Ġst ar
ĠEm ma
Ġsw ings
Ġcl apped
Ġgent le
Ġfair y
Ġwelc ome
or row
Ġteac her
Ġp ers
Ġm in
Ġsm o
i er
Ġto day
Ġse c
Ġhig her
Ġno ises
Ġne igh
Ġdro ve
Ġne ck
Ġacc ident
Ġturn s
Ġb en
ĠThe ir
Ġst and
Ġsu ddenly
pp ing
um b
ĠIn side
Ġpie ce
Ġg ames
Ġneigh b
Ġpo cket
or s
Ġthr ow
Ġf ree
Ġfor get
b r
our n
vent ually
Ġhug s
Ġj ourn
h o
ĠFl uffy
Ġd ry
ve l
Ġl on
ra ct
Ġw ings
Ġche ered
e ad
Ġhapp en
Ġf ence
Ġw ish
Ġlon ely
Ġlong er
Ġexpl ained
itt ing
ph ant
Ġl ate
Ġsa ng
Ġin st
Ġal ong
i ble
Ġwe ll
Ġse a
Ġsho es
Ġl unch
c y
Ġstor ies
c hes
Ġc orn
Ġup set
Ġtr ou
Ġ O
ou n
Ġsh ook
Ġm iss
Ġc aught
Ġst ars
Ġele phant
Ġadventure s
Ġsec ret
Ġsh ap
Ġm ine
Ġyou ng
ĠJim my
ock ed
Ġs oup
Ġp urp
Ġmo ved
Ġsing ing
Ġbel ong
Ġto m
Ġrock s
Ġw he
m ent
Ġ On
Ġp h
Ġd ist
ĠTh ank
Ġdro pped
Ġbuck et
c es
Ġpl ac
Ġj ar
aught y
ount ain
bb y
e k
Ġn aughty
Ġb at
Ġp ast
Ġo wl
ĠM um
Ġsw am
ĠT w
Ġbr ing
Ġdr ink
D o
Ġta king
Ġapp le
y ard
Ġta kes
Ġre sp
ll o
Ġback yard
fu sed
Ġpurp le
Ġw ise
Ġshap es
Ġstre et
ĠSam my
Ġor ange
Ġ es
Ġcom es
b ow
Ġsound s
w ard
Ġex p
Ġke y
Ġno se
Ġnear by
a il
Ġben ch
Ġfar m
Ġexpl oring
Ġsh op
Ġju ice
ĠL ater
co l
Ġm ad
Ġc ou
Ġnot hing
Ġa f
ck s
es e
s y
Ġin v
Ġbus y
Ġs ick
un g
S ara
Ġsee med
Ġp ig
Ġwo ke
Ġwonder ed
Ġma il
Ġrel ie
Ġc ow
aught er
ad ow
ion s
Ġye ar
Ġth ough
Ġhold ing
Ġarm s
c ing
f ish
Ġs itting
Ġd es
Ġbran ch
Ġn est
Ġm ark
Ġt iny
pp er
Ġdri ver
th day
itt ens
Ġ 3
Ġm il
it y
ra id
in ing
o se
Ġrain bow
Ġaf raid
Ġo b
Ġc ir
ĠC ome
Ġf it
Ġli ft
re ad
T im
Ġr ound
Ġb oun
a le
Ġgif t
Ġsp oon
Ġco at
Ġcar ry
Ġpat ient
Ġd aughter
Ġcut e
Ġk ing
id ge
t o
Ġtou ched
Ġprom ise
Ġhe llo
Ġfore ver
Ġbre ad
O f
et h
ĠW h
ĠTw eet
Ġb and
Ġl etter
ver ed
Ġk ite
Ġpe ace
ĠW ith
Ġche ese
Ġwh ist
Ġhug e
ĠE ll
Ġgra b
Ġrelie ved
le t
H ey
Ġbir thday
bo ard
Ġf ing
Ġp ower
Ġgi ves
st ing
Ġshe ll
our s
Ġw ra
o g
Ġhop e
c er
Ġput s
Ġswim ming
Ġg igg
g g
Ġa ct
Ġmil k
Ġbott le
Ġk ick
ĠA l
Ġint ere
Ġjourn ey
Ġaccident ally
sh ine
Ġm ist
Ġexc iting
it ch
Ġli fe
Ġon to
Ġco zy
g ged
Ġsun ny
Ġbu sh
Ġre t
Ġcreat ure
Ġinst ead
u nt
al m
Ġday s
Ġcom fort
Ġpoin ted
Ġe ar
Ġl ucky
s c
Ġlaug hing
Ġsp in
p ed
Ġro ad
Ġl ater
Ġim ag
Ġsun shine
Ġh oney
Ġcoll ect
n ess
Ġshar p
Ġw om
Ġwom an
Ġret urn
Ġdis co
Ġpu dd
t en
Ġe as
Ġf an
Ġwatch ing
Ġin c
u b
Ġsp o
Ġany one
Ġsand w
Ġc ave
el s
Ġduck s
Ġtal ked
Ġsmil ing
iz e
b all
G ood
Ġb ought
Ġp op
Ġs uc
Ġlo ves
Ġh or
ĠJen ny
Ġbutt on
ble m
Ġpro blem
Ġheal thy
Ġsear ched
Ġg ather
Ġcray ons
ĠC h
Ġpers on
Ġk iss
Ġtrou ble
nd p
Ġ ent
Ġme et
r ound
Ġtast y
Ġapp les
ĠM ittens
Ġsmell ed
ĠS omet
ĠEm ily
Ġstor m
Ġp ile
Ġsnow man
Ġm ach
ĠR e
itt en
Ġc e
Ġsp id
Ġcloud s
Ġr ope
Ġz oom
Ġpl ane
Ġresp ect
ĠH ow
ir t
am ed
Ġintere sting
Ġcle ver
Ġsh ining
Ġz oo
Ġp ar
Ġmat ter
Ġw ide
o ve
ow ed
Ġscream ed
Ġmu d
on t
Ġpre s
Ġad m
Ġsn ake
Ġpu zz
Ġgo es
a ur
ep end
Ġb ark
Ġh on
Ġp ract
Ġe ag
Ġor gan
Ġfr ont
Ġpr ot
Ġfe ather
e b
Ġc ard
Ġas leep
Ġp ill
Ġp ath
Ġs ur
Ġa p
er ly
Åĵ I
Ġprot ect
Ġsa f
C ome
Ġqu est
e en
Ġtri es
ndp a
Ġse at
Ġansw er
oo se
Ġspot ted
Ġte ach
Ġlove ly
ĠA nn
Ġv ill
Ġtri p
Ġdan ced
Ġhor se
Ġneighb or
Ġforg ive
Ġpres ent
Ġgent ly
Ġv al
Ġw ild
Ġte eth
Ġsh r
u p
er t
Ġm ed
Ġplac es
ĠS t
ĠL e
ĠG o
Ġwear ing
Ġapp eared
Ġsl id
Ġph one
Ġmin ut
Ġche er
Ġwh ich
Ġwho le
is a
Ġm ind
Ġmy ster
Ġth in
Ġru de
Ġgi ant
Ġdir t
Ġd i
ul ar
Ġwor m
ĠTo gether
ch ing
Ġli ve
Ġroll ed
Ġfa ces
Ġcon fused
iz z
ĠJ ake
Ġpretend ed
Ġtast ed
Ġs er
Ġsa ck
Ġcou ch
Ġimp ress
Ġr ing
Ġas h
Ġp our
Ġc alm
ss ed
Ġcook ie
ce an
itt y
Ġspl as
Ġdri ve
Ġo cean
Ġcho col
n ic
Ġb an
Ġmach ine
Ġl ad
Ġc a
Ġsp ent
Ġcorn er
Ġpic nic
on es
Ġsa l
Ġsu pp
Ġwa ve
ĠB e
Ġt un
Ġco in
Ġspid er
J o
Ġch ick
at or
Ġo ven
Ġp an
Ġsc ar
Ġtom orrow
Ġfe et
Ġpu sh
Ġbug s
ĠSomet imes
Ġfur ry
Ġneck l
Ġw ip
un k
Ġre c
Ġl ay
Ġem b
at o
ĠL isa
Ġkne e
Ġfight ing
l a
Ġ ign
um ber
Ġla st
Ġhid ing
Ġlad der
Ġbuild ing
Ġrem ind
al s
Ġsmo oth
Ġbu bble
Ġchocol ate
Ġhelp ful
Ġbe ll
Ġb lew
Ġro b
Ġfin ish
Ġcan n
Ġs el
Ġp ool
ĠB u
Ġt id
Ġwr ite
Ġtal king
Ġdel ight
Ġcann ot
Ġch ased
ar ge
Ġm ountain
Ġfo ld
ar ra
Ġc art
Ġsong s
Ġtoo l
ig hed
Ġn et
Ġlea f
Ġst ret
Ġsp read
Ġemb arra
Ġfo ot
S t
Ġre p
m o
if e
Ġwait ing
Ġm aybe
Ġe ventually
Ġpudd le
Ġpa w
Ġban an
Ġsh y
p er
Ġbar ked
Ġsel fish
Ġw ore
ĠP eter
Ġrob ot
Ġtast e
ĠP lease
Ġa nt
Ġneckl ace
Ġwas h
Ġfix ed
Ġwhen ever
Ġst ra
Ġstr ing
Ġc ross
Ġcl oth
Ġso l
Ġc oo
M y
le x
bo x
ump y
Ġst ep
P lease
Ġh um
Ġshe lf
ul t
Ġtreat s
Ġpeace ful
Ġtid y
Ġl arge
ĠS ome
Ġhe ars
Ġpl ate
or ry
Ġst ir
Ġst one
ĠWh ile
Ġm issed
Ġ '
Ġg en
ĠT eddy
Ġvill age
Ġcra b
ur se
ĠEvery where
Ġsp e
Ġcreat ive
Ġspr ay
Ġwhist le
Ġkn ocked
Ġstick s
air s
ig er
ĠT V
ell y
op h
o ld
Ġcarrot s
Ġcol our
le br
Ġdec or
Ġ Z
ung le
Ġtr ust
Ġtell s
Ġce lebr
u sh
Ġembarra ssed
Ġshar ing
Ġwh is
Ġj ungle
get able
ar m
Ġmo on
Ġve getable
Ġfor ward
Ġhe l
p ty
Ġem pty
Ġle gs
Ġno ds
Ġjump ing
Ġland ed
o in
Ġte a
ĠD on
ĠRe x
nn y
ir d
Ġp le
Ġgr ay
Ġspl ash
et s
mo st
Ġn ut
ĠW hy
Ġb al
Ġash amed
Ġtight ly
Ġsh irt
Ġs our
ĠSu s
Ġgre w
Ġal most
Ġsa ve
Ġdisapp oin
S am
Ġme ant
Ġsp icy
d ge
Jo h
Ġgen er
ĠLe o
St op
an o
Ġd eter
Ġpill ow
Ġpol ice
it al
y ing
Ġthe se
n ed
Ġhon est
a king
Ġg un
Ġunderst ood
i an
Ġdeter m
Ġho sp
Ġje w
Ġhosp ital
Ġshe ep
Ġbre ath
g round
Ġme adow
Ġyell ed
Ġb ored
ar ing
er p
ĠE ven
Ġsee k
ĠL ittle
d le
Ġcar ried
Ġg as
Ġsnack s
Ġst ood
Ġp izz
Ġb er
Ġpuzz le
or k
Ġsuc cess
Ġse ed
Ġd rew
ĠAl ice
Ġdisappoin ted
d en
Ġl ine
Ġgo ld
v ous
Ġk itten
Ġle m
ĠM ummy
Ġsh ore
ĠJoh nny
Ġfe ar
Ġv an
o bby
Ġgl ass
Ġscar f
au l
Ġfe ed
ust r
k in
Ġsleep y
Ġpower ful
h in
Ġs ighed
Ġh ours
Ġb urn
Ġeas y
Ġc ries
Ġpizz a
Ġgener ous
Ġmess y
on y
Ġa v
Ġwa ves
W here
ar l
g ly
Ġk issed
if f
Ġp ay
Ġspark ly
Ġprin ce
Ġsh ip
Ġso ld
Ġt est
ĠB l
Ġp ri
Ġhid den
ĠB r
Ġu gly
Ġbl ow
S orry
Ġv ase
Ġgr oup
itt er
Ġstand ing
f l
Ġsandw ich
Ġcl ass
Ġfr ustr
Ġj elly
Ġpo or
Ġclos et
Ġm ot
Ġreturn ed
Ġplant s
ĠM ark
in a
Ġbed room
Ġp in
Ġknow ing
Ġn er
Ġcir c
Ġcr own
Joh n
Ġche w
A re
bo dy
Ġcat erp
Ġcaterp ill
Ġyour self
Ġta ught
w ork
Ġte ars
ot e
Ġfing er
Ġr ad
Ġspo il
Ġner vous
p ack
Ġp ir
Ġpol ite
Ġf ig
Ġthank ful
Ġbr idge
Ġle g
Ġes c
oo p
Ġminut es
Ġb oring
Ġt ick
Ġh ur
Ġfan cy
Ġgr umpy
m b
oo f
Ġtw irl
Ġg ate
' d
Ġdr op
Ġt ent
a f
Ġfrustr ated
Ġha ng
Ġlo ck
er a
Ġget s
Ġwo lf
Ġpass ed
Ġfl ag
Ġmyster ious
Ġsc r
Ġre g
ens ive
Ġcaterpill ar
Ġcl own
Ġw is
Ġdeterm ined
sel ves
Ġde er
Ġexp ensive
Ġpick s
Ġdan cing
Ġof ten
Ġwa gged
Ġexc ite
Ġf il
ill ed
Ġbo ss
iss ors
Ġrock et
id dle
os aur
Ġgather ed
u al
l ight
Ġche st
Ġ OK
Ġsc issors
Ġpu s
Ġsa ved
at es
iz zy
Ġc and
s ist
Ġansw ered
Ġfruit s
Ġp ress
Ġm ir
Ġ No
Ġtr ue
Ġmist ake
u ce
Ġdog s
Ġb one
Ġdin osaur
Ġwor king
W ho
Ġl it
Ġho pping
Ġvegetable s
Ġgigg led
Ġc ap
Ġta ken
qu e
Ġmed ic
Ġwa nder
Ġon es
Ġst uff
Ġcomfort able
Ġm ummy
Ġpack ed
g gs
Ġexcite ment
o nd
Ġe ggs
ell a
r or
s er
Ġkn ight
ĠK itty
ĠSus ie
ĠTo day
Ġm iddle
Ġas king
Ġmedic ine
Ġlo se
T here
eci ally
Ġsp end
Ġcra wl
Ġd est
ot s
Ġsweet ie
Ġbr ush
Ġmat ch
Ġt ie
Ġch ange
Ġli cked
Ġn umber
Ġfl ut
Ġdr um
Ġdraw ing
p ecially
Ġru ined
Ġa dd
Ġmo v
Ġwalk s
Ġes pecially
Ġwhe el
el p
Ġt ape
Ġcl ap
Ġno d
h a
Ġla zy
ĠI f
in ess
ug ar
Ġsmell y
Ġgl ue
Ġwe ak
Ġg ar
Ġball s
Ġs ight
Ġh orn
Ġf ake
Ġyour s
Ġmo ving
ĠBl ue
Ġbo dy
Ġfeather s
Ġb ake
Ġex am
Ġbath room
Ġmir ror
Ġdist ance
Ġl ying
Ġs ugar
Ġo k
Ġe ld
Ġqu een
Ġcall ing
Ġple ased
Ġro ar
N ow
ĠE ventually
Ġplay ground
Ġsplas hed
Ġdisapp eared
Ġfl uffy
Ġbec ome
Ġno isy
ag ed
H elp
Ġshow s
ĠB obby
Ġc ri
Ġdr ank
Ġle ad
Ġpr ay
Ġlem on
h ip
Ġdec ide
at ing
Ġ U
Ġmom s
Ġr id
Ġwe ek
Ġst ones
Ġse ll
Ġc age
et e
Ġrel ax
Ġm ic
ugg est
Ġs uggest
Ġco vered
Ġju icy
Ġtw ist
Ġte am
ĠD an
Ġ ed
Ġquest ions
Ġwr ote
Ġd ig
Ġsail ed
y al
Ġbo ard
Ġche ck
Ġinc red
Ġneed s
or y
Ġboy s
Ġcle ar
in ation
ee z
Ġr are
Ġhurt s
Ġfam ous
Ġf ine
Ġeag er
Ġtow el
Ġso ap
Ġsho ot
Ġor d
Ġsk ipped
ĠR ose
Ġd ish
Ġclean ed
ill i
al ous
B e
Ġcont ent
Ġje alous
Ġme asure
Ġr ich
Ġ ind
Ġf is
ĠMr s
Ġeld erly
ĠBr own
Ġex t
Ġfig ure
Ġjo ke
Ġlo yal
Ġbubble s
ĠEll ie
umb led
t i
i pp
Ġgl ow
Ġstra w
Ġf ather
Ġincred ible
Ġmot or
Ġchick en
Ġfr own
Ġbran ches
Ġco ins
Ġgar age
Ġb orrow
Ġey e
p ort
Ġha m
Ġloud er
Ġwa nd
ĠE nd
im ed
Ġco ver
i pper
Ġwh ale
M e
Ġch ase
ĠEll a
Ġbal ance
Ġmo d
Ġwor d
dd y
Ġun us
Ġa w
Ġhappen ing
Ġtruck s
Ġlaugh s
im p
Ġcra w
Ġsw ord
Ġcraw led
Ġm ap
Ġho se
Ġl amp
Ġorgan ized
Ġt iger
Ġunus ual
i que
Ġt ag
Ġgu ess
as ing
ke ep
g u
Ġs il
Ġext ra
Ġreal ised
W ell
Ġth ick
Ġlift ed
Ġbanan a
Ġballoon s
Ġon ce
l and
?" .
Ġun ique
at ely
ĠP ete
f ic
Ġco st
Ġoff ered
Ġkn ife
Ġbott om
Ġfall s
H ere
Ġsh ake
Ġf our
Ġsw an
Ġmight y
Ġjew el
Ġdisco vered
al k
Ġt urt
c il
Ġdif fic
Ġbrother s
Ġto ug
Ġfl ash
Ġpen cil
Ġcolour ful
y e
L ila
Ġkind ness
Ġadvent ur
ag es
Ġb arn
er y
Ġan g
Ġhelp s
ĠD ucky
Ġhard er
Ġf ool
ĠF red
Ġh unt
Ġwe ird
Ġcomp et
Ġdiffic ult
Ġp ump
Ġa dded
ĠB ella
Ġcir cle
ce pt
Ġd epend
Ġgi ving
Ġsmo ke
Ġd izzy
Ġbat ter
i v
Ġdo lp
ol og
Ġadventur ous
Ġhat s
keep er
Ġman aged
ra g
Ġed ge
Ġpoin ting
Ġrec ord
Ġwra pped
Ġfr ight
Ġbox es
Ġwra p
f ast
he ad
ĠM y
Ġgr own
Ġy og
Ġmark et
Ġap olog
j ect
Ġwhis p
ur ed
Ġbelong ed
ugg led
Ġher o
Ġlo g
Ġstraw ber
re ady
ĠM ar
Ġsp un
Ġsk in
Ġbreak fast
Ġber ries
Ġgo at
Ġba ld
a w
Ġloud ly
Ġboss y
Ġtoug h
Ġc her
Ġcray on
at ure
er ry
Ġsc are
Ġpe e
Ġsh ape
Ġch oose
Ġn orm
Ġe ars
Ġmean s
Ġbr illi
Ġal ready
Ġagain st
Ġknow s
Ġc ro
ous es
Ġbl oom
Ġr ough
Ġsear ch
y m
Ġh arm
Ġgra ce
Ġoff ice
il t
ĠBob o
Ġimpress ed
Ġcompet it
Ġdream ed
Ġcirc les
Ġbrilli ant
ĠM ike
ĠM andy
Ġre f
Ġwa gon
Ġenjoy ing
ĠTweet y
Ġca b
Ġm elt
Ġis land
Ġfav our
Ġsay ing
Ġbird ie
Ġsl ipped
Ġmov ie
Ġpain ting
Ġlearn ing
l ies
p es
Ġfool ish
Ġcab in
re en
Ġnorm al
Ġ icy
Ġh ouses
Ġtr unk
Ġf at
em o
Ġsaf ely
Ġesc ape
Ġbutt ons
Ġval u
Ġfavour ite
Ġj ack
Ġcu dd
Ġstu bb
Ġsp ace
app ing
Ġturt le
Ġst ri
ĠN emo
Ġsh ark
Ġla w
Ġdream s
an ged
Ġshell s
c orn
la imed
Ġfr idge
Ġgu it
Ġstu dy
Ġdepend able
ed ient
art h
Ġexc laimed
Ġnot ice
g y
Ġstubb orn
Ġpour ed
Ġli br
Ġhapp iness
ĠGra ndpa
Ġsound ed
ra ge
Ġt er
Ġwa ke
Ġwall s
Ġto ast
Ġbag s
om ed
Ġth u
Ġfright ened
ir p
Ġle an
Ġinv ited
Ġnice ly
Ġcheer ful
Ġr at
Ġro se
ac he
Ġsmall er
ad o
Ġwip ed
c ient
Ġe gg
e xt
Ġpop corn
Ġob edient
Ġproud ly
Ġc am
Ġb itter
Ġcl ay
Ġt imes
Ġno sy
Ġr oof
o ppy
Ġtool s
Ġlight s
Ġvalu able
Ġmix ed
Ġf ountain
Ġwe al
Ġdelic ate
Ġguit ar
Ġan cient
Ġfi er
Ġcra ck
Ġuse ful
Ġo w
Ġp il
Ġla b
w ards
ent ion
Ġun l
Ġac cept
Ġde ad
Ġlo cked
Ġcount ed
Ġsw e
Ġpar rot
ia ble
Ġsuggest ed
Ġc op
ol a
k n
ĠF r
Ġc ity
Ġtw ig
Ġd ough
Ġz ip
ĠYou r
Ġfier ce
Ġst umbled
re ll
Ġfing ers
Ġsto ve
Ġter ri
Ġl ow
Ġind epend
ut h
Ġscr at
Ġspoil ed
Ġre sc
Ġbus hes
Ġro de
Ġme m
Ġt ummy
Ġsee m
Ġdes ign
or ge
Ġhold s
Ġf rag
Ġclean ing
Ġdo ve
Ġwhisp ered
Ġtun n
it her
Ġbe ak
Ġthought ful
Ġrel iable
Ġkick ed
Ġsh adow
ĠD ave
ip e
Ġspin ning
Ġc one
Ġen g
Ġus ing
Ġgra ndpa
Ġg em
Ġkind s
Ġab ove
Ġshow ing
Ġexcited ly
Ġste al
Ġst ream
Ġstrong er
Ġexpl ored
a z
o ot
Ġboun ce
Ġb ump
Ġsun fl
ĠWhen ever
an ut
Ġthem selves
Ġtom ato
Ġpract ice
Ġremind ed
Ġmag n
Ġway s
kn own
Ġst at
Ġbu ilt
co d
at ter
Ġbright ly
ar ry
Ġjo g
Ġjo ined
Ġindepend ent
Ġsuccess ful
Ġy arn
Åĵ Let
mb rell
Ġj am
Ġw itch
Ġu mbrell
p id
am ond
in al
ee ze
Ġte le
Ġh oop
Ġor ig
Ġser ious
Ġfrag ile
Ġun known
Ġmar ble
Ġha lf
Ġpain ted
Ġboat s
Ġpump kin
Ġsn iff
Ġdi amond
ĠL ola
Ġsh one
Ġcl um
Ġcro cod
Ġt ank
Ġsol ve
Ġen orm
Ġru bb
Ġstu pid
Ġbe an
Ġsal ad
Ġenorm ous
v ice
Ġf re
Ġgu ard
Ġjo lly
Ġst airs
e orge
Ġen c
Ġmet al
Ġpe bble
Ġham mer
Ġdoes n
Ġperf orm
Ġplay ful
Ġac orn
Ġadm ired
Ġd ust
Ġcost um
ĠS oph
Ġhel m
ĠK im
n a
Ġth irst
Ġopen s
Ġche ap
Ġbra ce
Ġorig inal
Ġy et
Ġar g
Ġcam era
Ġa unt
Ġflash light
Ġall owed
in es
Ġwas hed
Ġfind ing
d om
r ay
Ġch anged
ĠTo by
ter n
Ġbe es
Ġclum sy
Ġweal thy
Ġsleep ing
Ġcomp ass
H ow
Ġpe anut
ic t
il ty
Ġgu ilty
ill a
in ary
Ġto r
Ġdelight ed
Ġpo st
he t
ug ged
S ee
Ġhair y
an ger
Ġm is
Ġsu it
Ġstop s
Ġru shed
ur ing
ĠS n
Ġra ced
Ġlea ving
Ġg oose
Ġpick ing
umb ers
Ġmo der
ll ip
llip op
Ġprin t
Ġthirst y
Ġs ink
Ġtell ing
Ġth ose
Ġd ull
Ġseed s
G o
Ġmiss ing
Ġkn ock
Ġpig e
Ġar row
Ġbe et
ag het
aghet ti
Ġen vel
!" .
ro be
Ġm ask
i ence
Ġlo llipop
Ġhand ed
ie w
Ġthu nder
Ġbu ll
Ġru b
Ġcho se
Ġfor th
Ġh ay
f a
Ġr ug
Ġsp aghetti
Ġclo ck
Ġpre p
Ġang el
Ġsa uce
Ġsh ocked
Ġeng ine
Ġs on
Ġv iew
ation s
R e
ĠP e
Ġcomp ut
Ġstat ue
Ġdolp hin
Ġtow ers
Ġdel iver
Ġpop ular
Ġpot ato
Ġdest ro
Ġumbrell a
Ġgrace ful
Ġ Once
Ġmoder n
ĠP at
Ġbar ber
Ġcrocod ile
Ġshe l
Ġru bbed
Ġfriends hip
eez ed
Ġsn e
Ġcompass ion
Ġend ing
c u
is k
Ġgra nd
ĠC l
Ġcarry ing
Ġn urse
g est
Ġst age
Ġad vice
ars h
Ġreg ular
c om
Ġn umbers
Ġf lex
Ġlo ad
Ġcare less
Ġc ur
Ġmar ch
Ġpri ze
Ġn ature
oom y
Ġsear ching
eb ra
Ġpen gu
Ġgas ped
Ġ ing
Ġch ar
ĠJo ey
Ġsp illed
Ġfre sh
Ġpee ked
Ġbig gest
Ġcre ate
O w
Ġtr uth
Ġflut e
Ġterri ble
is ion
Ġsc reen
red ient
Ġing redient
t ime
ĠG eorge
Ġpi ano
Ġc ere
Ġe arth
Ġdri ving
Ġw ire
sh ion
Ġst ack
ic hes
Ġcom b
Ġt ied
Ġst amp
Ġsh iver
Ġav o
Ġpir ate
Ġcr ane
Ġjack et
Åĵ Yes
Ġpat tern
Ġthin king
Ġw ing
Ġdream ing
i o
Ġte m
Ġpat ch
Ġwhe els
Ġflex ible
Ġtor n
Åĵ What
Ġz ebra
ĠN ext
Ġsqu are
Ġre ward
Ġm el
Ġcra zy
Ġjump s
i kes
Ġto oth
Ġpers ist
Ġbeet le
Ġp ant
Ġwindow s
Ġimag ined
a wn
l oo
Ġsur f
Ġper m
Ġear ly
Ġtunn el
Ġstr anger
Ġcomput er
The y
ho st
Ġimpress ive
Ġwar ned
ĠHe re
Ġso fa
Ġsc atter
Ġme al
Ġen v
Ġtra sh
Ġsc ale
ĠL ook
Ġhand le
Ġspr ing
Ġdes k
Ġli z
Ġbrace let
ĠB ill
Ġenvel ope
Ġspo ke
Ġslid es
H e
Ġcoll ar
Ġcere al
Ġmo le
Ġent h
em ent
Ġpa le
Ġingredient s
i bb
âĤ¬â Ģ
Ġsandw iches
ĠB ear
Ġor der
Ġtra p
Ġb ent
Ġg host
Ġ er
Ġmail box
Ġj ug
Ġmu sh
Åĵ It
Ġdisco ver
Ġsad ly
Ġpen ny
Ġa head
Ġbad ly
Ġspark led
Ġenth us
Ġp ow
ĠP olly
Ġtra vel
ell ig
Ġnot e
ie f
Ġpu p
ĠAnd y
Ġsunfl ower
Ġfor k
ĠA lex
Ġnam es
Ġint ellig
Ġcount ing
ĠG ive
Ġread ing
Ġdestro y
a id
Ġsor ts
Ġm ay
Ġlibr ary
Ġpretend ing
Ġpar ade
Ġharm less
Ġsu per
Ġun cle
Ġcomp let
Ġblue ber
Ġstick ers
Ġgrow ing
ĠB a
t ter
Y ay
Ġletter s
Ġsu dden
Ġquest ion
com fort
Ġcry st
Ġhum ble
Ġbeaut y
Ġob ject
Ġre ce
ÅĵLet Ã¢
Ġbe ep
Ġenc ou
Ġold er
Ġcelebr ate
Ġsh ut
comfort able
Ġband age
Ġun comfortable
Ġcompetit ive
ĠTweet ie
b led
Ġt ask
Ġpast a
Ġhun g
ac hes
ri c
ill ie
ĠP aul
Ġc ards
Ġbutterf lies
Ġplac ed
Ġcouldn Ã¢
Ġtra ck
Ġru les
Ġn ail
ip s
Ġle ash
Ġpige on
Ġg or
Ġfl our
Ġcom pl
Ġst ation
Ġcoo king
in ce
Ġy awn
Ġsn uggled
Ġpersist ent
or ant
st ri
Ġm ill
Ġde af
Ġstart s
Ġtri ang
Ġval ue
u d
Ġliz ard
Ġcup board
Ġcl ub
Ġo tter
ĠBrown ie
Ġwa ff
Ġmush room
Ġan x
Ġsc oot
Ġgif ted
G ive
ar ian
Ġch ance
Ġsold ier
s es
op us
ct opus
Ġtri ck
Ġph ot
ĠU n
Ġtwirl ed
Ġord inary
u bby
Ġgl oomy
Ġh ipp
Ġchar ming
ĠS m
Ġign orant
Ġc urt
ĠS h
Ġnut s
g ust
Ġdraw er
o e
ic es
Tom my
Ġset t
Ġanx ious
Ġhur ry
Ġcurt ain
Ġch asing
Ġre fused
Ġne at
c ream
Ġb ase
ĠSoph ie
Ġdis gust
Ġspe ed
Ġo ctopus
Ġhunt er
Ġsh ine
Ġs end
Ġcompassion ate
Ġd ug
Ġun iver
ĠGra ce
Ġh ook
Ġp urse
Ġany where
c ut
Ġp ony
ĠL ee
Ġall ig
Ġshout s
Ġintellig ent
M ax
a ff
Ġsh aking
Ġwis hes
Ġc amp
ĠA re
ĠW here
Ġt ire
a ked
Ġl ed
ce ed
Ġal ert
B ye
Ġpe pper
Ġatt ract
er able
Ġg um
Ġboun ced
Ġc ase
Ġj et
Ġcar p
Ġch ubby
Ġb icy
Ġt ur
Ġmis erable
Ġcart oon
Ġfear ful
Ġf u
ĠJ erry
Ġre sist
Ġdecor ate
Ġcri cket
Ġp and
Ġc omet
Ġimp at
Ġlive ly
Ġcreature s
Ġsqu ash
Ġo stri
co a
ur b
Ġit self
Ġth ief
Ġgor illa
Ġpract iced
ht ub
Ġdist urb
Ġcou rage
Ġd ess
Ġbat htub
Ġfor t
Ġsand box
Ġg ir
Ġimpat ient
Ġbright er
Ġhelm et
um mer
ĠCh arl
Ġsupp ort
Ġfil thy
Ġen er
Ġpress ed
Ġpant s
Ġt ap
Ġback pack
Ġtur key
I f
Ġenv ious
Tim my
Ġhipp o
Ġb ri
Ġbark ing
Ġdisgust ing
Ġv ine
Ġpull s
lc ano
Ġtr ay
Ġneed le
en ry
ic op
Ġhelp less
Ġsome where
icop ter
Ġt en
Ġsk ip
Ġgrab s
Ġr ice
Ġth read
Ġb et
Ġsuc ceed
Ġcarp et
n oon
r r
Ġafter noon
aur ant
Ġl id
Ġhel icopter
Ġmonkey s
Ġno body
i est
Ġmel on
Ġrest aurant
ĠBu ddy
Ġm ug
Ġrest less
ĠBe fore
Ġcryst al
Ġsal t
Ġse al
Ġatt ic
Ġrespect ful
Ġrep e
or able
Ġco coa
ĠM illie
Ġje ep
Ġpo em
Ġtr ump
Ġvo lcano
Ġnow here
Ġstret ch
Ġhum an
ĠB et
Ġsp ell
Ġfind s
Ġstret ched
Ġstep s
Ġrad io
Ġf ive
ĠR o
Ġbar rel
Ġsho e
ĠAnn ie
u nd
Ġallig ator
Ġm ath
Ġso ck
ĠS andy
Ġle op
Ġattract ive
g n
Ġele v
n ight
Ġfire work
Ġh arsh
Ġadm ire
Ġcoo ked
Ġstir red
he art
Ġany way
Åĵ That
Ġgigg le
Ġme as
Ġmu ff
Ġtri pped
Ġra ven
Ġimp ro
gg ing
Ġstick er
Ġostri ch
Ġad orable
ĠT r
ar oo
Ġcat s
ang aroo
Ġpack age
Ġv ide
Ġun pack
Ġcand le
Ġso ar
Ġspl it
Ġexpl ain
Ġelev ator
Ġa nts
Ġf le
Ġmod est
Ġsh ield
Ġre co
Ġdess ert
Ġli ons
Ġdist ant
p ar
Ġp un
Ġtrou bled
Ġpus hes
Ġcow s
Ġfrown ed
Ġfur ther
Ġtrump et
Ġse par
Ġswe ater
Ġk angaroo
Ġsor t
Ġv i
Ġpaw s
Ġr ibb
Ġst ared
Ġbicy cle
Ġb ikes
ĠEvery thing
Ġbre at
Ġhapp ier
Ġch alk
st airs
oph one
Ġmagn et
st ic
Ġfire man
Ġorgan ize
Ġsc rew
Ġbear s
Ġpo le
Ġshe et
Ġho les
ĠSm ith
Ġpus hing
Ġsail or
Ġlisten ing
Ġs ummer
ia stic
ĠMar ia
Ġenthus iastic
Ġu r
ĠW ill
Ġleop ard
Ġs le
Ġs ent
Ġche cked
Ġwall et
uc t
ĠR ed
ĠB unny
Ġmess age
Ġtra ins
Ġe ither
Ġscoot er
c ast
c ome
ast ic
Ġexp er
Ġs ize
isk ers
Ġsw itch
Ġhair cut
Ġloo p
Ġrid ing
g ie
in king
Ġqu ar
Ġbeh ave
ĠR os
Ġdis hes
Ġsil ver
Ġha ll
Ġsand cast
en ny
Ġch ain
ĠCharl ie
co nd
Ġob ser
Ġsh akes
Ġlight ning
ĠWh iskers
Ġh ive
Ġjo kes
Ġresc ue
Ġse cond
Ġforg ave
Ġpap ers
c col
Ġcu be
Ġro ared
ĠO r
ccol i
Ġswing ing
ha ppy
Ġo y
ĠW ould
Ġqu ite
Ġspe ak
Ġjelly fish
c i
Ġsc old
Ġpro v
cy cle
ĠSn ow
Ġp al
ĠH enry
Ġsho vel
el ery
Ġli p
Ġdidn Ã¢
Ġpand a
ed y
er op
erop l
Ġm ama
Ġpa id
Ġrep air
Ġa eropl
Ġmic r
Ġer as
u be
uck ed
Ġreco gn
Ġbr us
Ġavo c
Ġcount ry
b ul
i pping
Ġhe dge
y ear
Ġbel t
Ġsweet heart
Ġste ak
h ood
Ġsoft ly
Ġfall ing
Ġwhe at
Ġgi ven
Ġbu zz
re ci
Ġme at
Ġtriang le
Ġp or
Ġal ive
ĠP ap
Ġbreak s
Ġca ct
Ġplan et
aul if
Ġun happy
Ġgra pes
Ġcard board
Ġmicr ophone
aulif l
Ġapp reci
ĠL illy
Ġbark s
Ġm ild
en se
e er
Ġstart ing
ir it
Ġbro ccoli
Ġener gy
Ġshel ter
Ġp ipe
Ġpal ace
Ġcl apping
Ġpengu in
Ġsh ade
Ġfl ies
Ġt ube
Ġpe ek
Ġp ed
Ġspr ink
Ġshop keeper
ĠM ag
Ġc ord
f fe
eb ook
Ġnot ebook
al ed
Ġgo al
Ġvis ited
ffe e
Ġm en
Ġfeel ings
ol in
Ġc elery
Ġc aulifl
ĠBa by
Ġo l
Ġst om
Ġtri cks
ail able
Ġbo ots
Ġcol ours
Ġneighb our
se um
Ġle ar
Ġdraw ings
ĠPap a
Ġlear nt
Ġl uck
Ġclimb ing
Ġbasket ball
Ġpoin t
Ġrubb er
Ġcostum e
ir on
Ġput ting
Ġfr ame
Ġcact us
Ġra ft
Ġstrawber ry
Ġlaw y
ĠJ ess
Ġso il
ĠK ate
H a
Ġsmell s
Ġjourn al
Ġav ailable
Ġpil ot
Ġmu seum
Ġmar ry
Ġbanan as
Ġb in
Ġb ur
Ġgo lf
Ġsa us
Ġro d
Ġdis pl
Ġhead s
Ġt ax
Ġam bul
Ġin se
oo ped
Ġve nd
Ġrain ing
im i
Ġzoom ed
M ia
Ġd ive
Ġbu l
Ġfold er
g es
Ġdrop s
Ġair port
Ġstr ugg
ic er
Åĵ You
ec ause
Ġend ed
Ġju dge
r on
Ġin k
a it
Ġshr imp
ĠT ed
Ġo at
Ġre ind
Ġp air
Ġcaulifl ower
ĠB un
Ġsp irit
Ġqu it
Ġkn ot
ree ze
Ġtun a
Ġeras er
Ġtreasure s
n ger
Ġstuff ed
Ġlean ed
op hy
ĠH arry
Ġbul b
re nder
Ġp ad
Ġmar ched
Ġcup s
il ing
Ġar t
p e
Ġhop ing
Ġambul ance
Ġthank s
Ġpol ish
Ġsh ort
ĠIn st
Ġeven ing
Ġdis ag
Ġbelong s
Ġw ool
Ġon ion
Ġg ro
Ġdispl ay
Ġtax i
hin o
n am
Ġt ub
Ġl end
Ġpr un
Ġthrow s
ĠM iss
Ġreind eer
a zz
Ġli e
ma nd
Ġco ffee
Ġfoot ball
Ġhad n
Ġsw ung
Ġtr ophy
Ġapp l
Ġcool er
Ġyog urt
c cer
Ġr ag
Ġhot el
Ġunl ock
Ġin sist
Ġla und
ĠR u
Ġcount er
Ġvend or
Ġli ves
Ġfil m
Ġlaund ry
Ġy ach
Ġso ccer
ĠDan ny
Ġcomplet e
Ġpor ch
Ġimag ine
ke let
Ġr hino
D ad
e f
ĠM imi
Ġapolog ized
Ġre ver
Ġpoin ts
Ġroll ing
Ġshould n
Ġinc l
sel y
ect ed
Ġp age
Ġmed al
an ic
Ġfield s
z zy
Ġfl ame
iz es
qu it
ac es
Ġo il
ur ch
Ġimag ination
Ġdi ary
Ġlawy er
ch anic
Ġfa uc
Ġwa ving
Ġmu le
Ġvi olin
Ġaeropl ane
Ġsk ill
Ġche ek
Ġquar rel
n ey
w een
id es
Ġme chanic
Ġpain ter
Ġpir ates
Ġplay er
Ġa x
ĠJ ames
Ġco al
Ġyach t
Ġclo sely
Ġk ay
Ġdon Ã¢
Ġbet ween
ĠRos ie
Ġwin ter
e ath
nam ent
Ġforgot ten
Ġpe ach
Ġeag erly
Ġs ym
Ġfrog s
Ġcreat ed
quit o
Ġthe ater
Ġor nament
Ġs kelet
Ġs ir
Ġfree z
. .
Ġfauc et
Ġmix er
it es
Ġmo s
Ġperfect ly
au sed
Ġcher ries
ck ey
Ġho ckey
Ġba king
Ġatt ention
Ġminut e
Ġfle a
Ġshout ing
Ġch irp
ctor y
Ġsur render
Ġc able
Ġw ife
Ġh ut
J im
Ġla ser
Ġsle pt
Ġher b
pl ace
af fe
ĠT ony
Ġkn ob
Ġv est
ĠInst ead
Ġfa ctory
âĤ¬âĢ ľ
bo l
Ġwip e
Ġphot o
Ġsee ing
Ġmos quito
it ure
urn iture
g en
Ġax e
Ġf urniture
Ġpo ke
Ġsquirrel s
Ġsym bol
Ġre ef
Ġgre edy
Ġpow der
Ġtra il
Ġp it
p le
Ġskelet on
ll ie
Ġv et
Ġarg ue
Ġl ime
Ġinse ct
Ġfis her
Ġpl astic
Ġsun set
an y
Ġsl ipper
ĠMag gie
sp ap
l ass
un a
You r
Ġsun g
Ġhop es
Ġ ig
Ġnew spap
Ġpet als
Ġig loo
Ġmotor cycle
Ġsne ak
Ġ iron
or ies
Ġslipper y
Ġk itty
Ġcu shion
Ġtw ink
Ġmeet ing
Ġbatter y
Ġwe ather
Ġgir affe
Ġstu d
Ġcall s
Ġb reeze
Ġoff er
Ġv room
Ġhead ed
A nd
Ġmag az
cer os
Ġz ipper
in arian
eter inarian
Ġblow ing
Ġma ze
Ġv eterinarian
Ġfire place
u es
Ġblanket s
Ġfis hing
Ġwa gs
ĠM ay
aw s
Ġbu ry
ĠA b
Ġchick ens
Ġoy ster
m m
Ġpare nt
Ġpo pped
J ack
Ġp ine
Ġtem ple
Ġhapp ens
Ġch urch
Ġrhino ceros
Ġit ch
Ġspray ed
Ġgr in
Ġqu ack
Ġdoor s
Ġshow er
Ġse as
Ġco b
ang u
Ġsk ull
ĠJ ul
Ġnap kin
ĠGo d
m en
Ġglow ing
Ġmyster y
M ama
is on
im ney
Ġte ar
Ġl angu
w eb
Ġst aff
her o
Ġr ot
Ġfollow s
Ġpass port
Ġburn ed
Ġkay ak
Ġre ve
Ġch imney
Ġfl apped
lass es
Ġhang ing
Ġb le
el come
Ġcan e
ors es
Ġvide o
Ġno vel
Ġcelebr ated
Ġsuper hero
Ġfisher man
Ġsung lasses
s ing
w as
Ġb other
er c
Ġsniff ed
Ġshr ugged
Ġsw amp
Ġsur round
Ġgold en
Ġgl ove
M um
Ġcompl ain
Ġbase ball
Ġh orses
Ġlot ion
Ġwr iting
un ately
Ġshould er
ch air
Ġcob web
was her
Ġde ar
Ġmist akes
Ġtra ve
t ress
Ġmat tress
Ġmem ories
Ġdish washer
Ġign ored
Ġking dom
Ġavoc ado
Ġgro cer
M olly
Ġstick y
W ait
Ġh ar
Ġc ell
Ġmo ves
Ġdisapp ear
Ġwe igh
ree k
ĠK at
Ġwelc omed
c ase
Ġto il
Ġc reek
Ġp ist
Ġbee f
Ġdan cer
Ġun if
Ġsqu e
ĠTr ue
Ġsail ing
t ain
Ġc ared
Ġeat en
Ġboun cing
Ġpist ol
Ġf ought
ĠS ee
ro sc
med i
Ġsepar ate
Ġunif orm
ĠCl ara
Ġex erc
Ġdis cu
medi ately
Ġarm chair
r ight
rosc ope
au d
Ġfo g
Ġce iling
l er
ss ible
Ġag re
Ġtoil et
Ġo ak
Ġve il
Ġthrow ing
Ġinv est
Ġt ug
Ġwor th
v ision
in ked
Ġit Ã¢
Ġs ince
ro d
Ġatt ach
Ġfreez er
Ġag ree
a b
as is
ĠSt e
Ġcri b
Ġinvest ig
Ġpresent s
Ġy ield
Ġpre vent
Ġint rod
Ġcollect ed
Ġmic roscope
ĠHe lp
ĠS ad
ĠF irst
Ġquiet ly
Ġclass room
Ġscold ed
Ġs izes
Ġo asis
Ġwar d
Ġs igh
Ġstre ng
Ġappl aud
Ġli cks
gg y
Ġt ut
Ġpast ry
Q u
ch ie
Ġreg ret
Ġcoat s
Ġward robe
Ġp ur
Ġal arm
Ġmust ache
Ġcand les
Ġcr ow
Ġstreng th
Ġcho ice
t e
ĠI Ã¢
Ġcast les
Ġpudd les
i ves
h ouse
Ġcar ing
Ġm op
Ġap art
B ecause
Ġwhis per
Ġtele vision
om es
Ġnewspap er
Ġjewel ry
ĠT ina
Ġchair s
iv al
Ġche ss
Ġroom s
Ġflo at
Ġrad ish
Ġsu b
Ġyog a
ĠFr eddy
Ġmake up
Ġpe ar
ct ion
Ġstra ight
Ġtrust ed
Ġinvestig ate
Ġsk irt
Ġkiss es
et y
ang es
Ġcabin et
Ġsqu eezed
Ġdress ed
Ġimpro ve
Ġg ym
Ġcrawl ing
Ġblueber ries
Ġworm s
ÅĵIt Ã¢
Ġbl inked
Ġp ra
Ġnew s
Ġhurt ing
Ġbook case
Ġmat ches
Ġbl ood
Ġent ered
Ġkeep ing
Ġdel ay
Ġapp ro
Ġde mand
Ġr ake
ict ion
ore s
Thank s
Ġtorn ado
Ġaccept ed
all ey
Ġsplas hing
iction ary
l id
Ġst able
Ġsqu eeze
Ġser ve
Ġmin er
D id
Ġt ucked
Ġst ro
Ġbo ot
Ġcl aws
Ġra z
Ġsandcast le
Ġsu ff
Ġamaz ement
r ing
Ġmusic ian
Ġwe ep
Ġla wn
Ġste am
ĠO llie
Ġa ut
Ġsn ap
Ġf est
Ġd ictionary
Ġr ise
Ġv alley
ĠBu zz
s it
fu me
ĠL uck
Ġho lid
Ġpuzz les
Ġth umb
Ġgr ill
up s
Ġcross ed
Ġlangu age
Ġbl ouse
Ġpin ch
Ġre aches
Ġj unk
Ġeas ily
ĠLuck ily
Ġy ucky
Ġper fume
Ġs i
Ġre qu
ch or
Ġw igg
Ġlet ting
Ġmagaz ine
Ġsp ear
ra ged
Ġhelp er
Ġra il
Ġcl iff
ĠHow ever
Ġwe ap
ĠM e
ĠW ho
Ġwander ed
ĠSnow y
Ġstrawber ries
Ġ V
Ġshr ink
Ġbird c
Ġtick et
Ġrelax ed
ĠE ach
ĠC o
Ġgrow led
Ġhar b
Ġto ng
m end
Ġcra sh
Ġbirdc age
a h
Ġtut or
Ġop era
Ġb ill
Ġpl ates
Ġmin t
Ġraz or
Ġpo ked
Ġbel ow
Ġplan es
Ġinc re
Ġan chor
Ġheart s
I s
h ic
om mend
Ġin f
ink y
Ġve hic
Ġrec ommend
omed ay
Ġmar ried
Ġble ed
Ġli c
Ġrequ est
Ġro ot
Ġribb on
Ġring ing
Ġwas te
i ved
Ġwaff le
Ġtr ade
Ġcu b
Ġber ry
u ch
bb ie
Ġkne el
is ing
Ġinst r
st ers
Ġis n
âĤ¬ .
Ġsn eeze
Ġfall en
c akes
Ġtele ph
Ġholid ay
om ob
ic ing
ĠBet sy
Ġv ac
Ġsurpr ises
ĠL iz
fort unately
Ġharb or
Ġbump ed
Y uck
r iger
Ġma ss
Ġwarm th
Ġfest ival
Ġent er
riger ator
Ġw ine
Ġd ried
Ġide as
Ġblack board
Ġbat he
Ġim mediately
Ġra ise
Ġref rigerator
Ġf ile
Ġl umber
Ġso cks
Ġbe gged
Ġfollow ing
Ġp ort
Ġteleph one
Ġmy self
Ġfu el
Ġmuff in
Ġaut omob
l ier
Ġsupp ly
Ġdress es
Ġlaug ht
Ġunderstand ing
Ġrever se
Ġexper ience
Ġs omeday
Ġc ale
Ġpr op
Ġrem ove
Ġspot s
Ġcale nd
Ġsn apped
or al
amp oo
Ġdestroy ed
Ġbu ried
Ġscatter ed
Ġbrave ly
Ġref re
Ġlaught er
ar i
Ġinv ite
Ġmoment s
Ġcudd led
iss ion
Ġcalend ar
' ve
Ġap ron
Ġcap tain
ache l
ĠF o
Ġperm ission
Ġlemon ade
Ġto es
ap ed
uc ture
Ġdiffere n
Ġstr ucture
Ġflut ter
r m
Ġas ht
ĠPe ople
Ġbooks he
Ġskill s
Ġsh ampoo
Ġtall er
Ġsa ving
Ġhit s
Ġyawn ed
Ġlic ense
ĠH ave
ĠRu by
Ġthe rm
Ġkn own
Ġspend ing
Ġbean s
Ġd ire
Ġbal an
Ġsaf ety
Ġjew els
ĠR achel
Ġsp ade
Ġign ore
O k
re at
Ġrabbit s
Ġasht ray
Ġp ages
Ġear lier
Ġlab el
Ġh omes
Ġbe amed
ĠP oppy
ĠCh irp
Ġha nger
Ġsit s
Ġprep are
Ġbreat he
W elcome
Ġbookshe lf
Ġhard ly
Ġfast est
Ġspark ling
Ġtherm omet
Ġdecor ations
Ġinsist ed
Ġtong ue
Ġmiss ile
Ġpatient ly
Ġfire f
Ġteach ing
v et
Ġr ow
Ġj ail
Ġappreci ate
Ġsub way
Ġplay s
Ġre s
Ġair pl
Ġadm ir
' .
ĠJo y
Ġvan ished
Ġthermomet er
Ġcher ry
Ġwas hing
ĠIt s
Ġsett led
Ġpra ised
Ġal right
Ġbelie ved
Ġdest ination
am ber
Ġdra in
Ġrem ain
Ġspark le
Ġbra in
Ġbuck le
Ġsc ore
Ġgif ts
Ġvac ation
Ġhill s
ĠEvery day
Ġclimb s
i um
Ġg ear
Ġpr ide
Ġrepl ace
Ġm ention
Ġsc ooped
xt ure
ĠSp ike
Ġh ate
Ġmail man
Ġexam ine
ĠM illy
Ġqu iz
Ġcr unch
Ġw iz
Ġshe d
ent s
Ġencou raged
Ġto re
ĠKat ie
S p
o sed
Ġm all
Ġit em
op s
Ġgu y
Ġher s
Ġs imp
Ġr hy
Ġspark les
n ies
Ġautomob ile
Ġd igg
ĠF ro
Ġpull ing
Ġsp aces
Ġpo ison
Ġdeep er
ĠZ oe
Ġbuzz ing
Ġchirp ing
Ġp alm
Ġfl av
Ġscrat ch
Ġstrugg ling
ant ly
Ġb ak
Ġl ugg
ĠG ood
Ġpan ic
Ġa chie
Ġpun ish
Ġdigg ing
Ġflo ated
Ġd are
T o
ĠL una
Ġsol ved
ĠI s
Ġwor se
Ġch ores
ĠN ut
Ġrest ore
Ġmod el
Ġrece ived
Ġlugg age
Ġn one
Ġwh ip
Ġse w
Ġbath robe
Ġshoot ing
Ġweap on
an na
be y
as p
Ġwiz ard
Ġwar ning
Ġprov ide
er o
Ġte ase
Ġbit es
at ch
Ġor anges
Ġflo ating
Ġelephant s
Ġresp ons
Ġweek s
Ġbill board
g ing
The se
Ġst y
Ġbri cks
Ġappro ached
Ġup stairs
Ġuniver se
Ġstom ach
Ġdifferen ce
Ġst ad
Ġme owed
Ġstad ium
M mm
Ġsh ot
os ity
Ġsp ort
ct ly
Ġsign s
Ġsprink les
Ġbr ings
Ġch amber
Ġd aisy
Ġsn eezed
Ġt ide
Åĵ No
th m
Ġcollect ion
Ġmass age
Ġe qu
ĠP enny
s ity
Ġran ch
M ummy
all en
all ow
Ġinf ant
f ied
Ġhe sit
Ġtwist ed
i ers
Ġsaus age
Ġsupp osed
Ġpattern s
Ġop er
Ġgl o
Ġaw e
Ġch allen
ĠK ing
Ġinv it
c les
ĠSte ve
Ġm ister
Ġgra pe
Ġsuff er
Ġpart s
Ġmeas ured
Ġe mer
u de
Ġwat ches
Ġdiscu ss
Ġrhy thm
Ġb ang
Ġvehic le
Ġmarble s
Ġgrin ned
Ġs ip
Ġset ting
Ġgre y
Ġneighbor hood
Ġpillow s
Ġrepe at
Ġseat s
ig ail
Ġfix ing
bble s
Ġexerc ise
Ġhe at
Ġe vent
l s
Ġn ation
ĠC at
Ġthr illed
Ġso re
Ġli ck
Ġle ak
em ember
ĠJ e
um ble
Ġsold iers
Ġg ain
Ġlet s
Ġun ite
Ġmem ory
Ġuniver sity
Ġsl ice
N ot
Ġf ut
asp oon
Ġsun r
Ġfut ure
s hing
Ġm itten
Ġspoon s
ĠSome one
Ġmelt ed
ĠAb igail
Ġsp it
d o
Ġj azz
Ġcartoon s
Ġspaces hip
Ġour s
Ġfl ood
Ġp aused
Ġrem ained
Ġact ually
Ġproblem s
ĠUn fortunately
Ġte aspoon
Ġgl owed
Ġto ur
Ġl ily
Ġsurround ed
Ġur ge
W ould
Ġdisco very
Ġairpl ane
!" ,
Ġscream s
Ġincl ud
ĠChirp y
Ġtra cks
Ġearth qu
Ġcollect ing
x y
Jim my
e ed
Ġdrink s
Ġsunr ise
Ġbe g
as es
Ġjo gging
Ġwhere ver
Ġpaint s
Ġr ust
Ġrece ive
Ġla id
Ġra cing
Ġchew ed
Ġs ings
Ġg ust
o ved
Ġc akes
Ġslid ing
Ġobser ve
O uch
Ġch ir
Ġwo nd
Ġra ised
Re ady
! '
Ġstr ang
Ġgirl s
Ġru sh
Ġburn ing
Ġord ered
ĠNut ty
Ġchir ped
ĠN ot
ĠSh aring
Ġz ipped
Ġpet ted
Ġd uring
Ġwork s
b ers
ĠM at
Ġtwig s
Ġsp ill
ĠSu nd
Ġpo ssible
Ġapp ear
Ġpig s
av id
Ġ x
Ġscrat ched
c ious
is hing
Ġco pper
Ġbe at
Ġpo ppy
Ġtomato es
Ġdec ision
B ob
Ġcont ain
J ill
Ġsaf ari
Ġcur led
S h
Ġwater ed
Ġcrunch y
Ġsc ur
Ġwhist led
Ġoper ation
ĠJ am
Ġatt ached
Ġwhist ling
Y um
Ġkind ly
Ġsat is
Ġland s
Ġsun light
Ġmar ching
ÅĵI Ã¢
z ag
Ġbed s
ĠUn cle
Ġve l
ÅĵThat Ã¢
Ġman age
Ġdr inking
Ġgrocer y
Ġpeanut s
Ġstrang ers
Ġmouth s
ĠRe my
Ġf ed
f y
Ġgl itter
m other
it ies
et ch
Ġprep ared
Ġpotato es
Ġcra shed
Ġvel vet
Ġfa sc
w alk
ĠS unny
Re ally
Ġpray ed
Ġcontin ue
Ġesc aped
Ġhur ric
Ġg az
Ġdog gy
Ġwis dom
Ġn avy
Ġmen u
W ill
Ġcon f
Ġol ive
ĠD avid
Ġmountain s
Ġe ff
Ġwar n
Ġinvit ation
ĠO l
ig zag
Ġto e
Ġstri p
Ġpu pp
Ġcle aring
Ġrem em
Ġadmir ing
Ġme ow
ip ment
Ġremem bers
Ġb es
Ġwait s
Ġside walk
Ġpri ce
an ny
Ġbr id
Ġtal ent
Ġequ ipment
Ġearthqu ake
Ġcom fy
Ġhat ed
ĠCh r
Ġfold ed
Ġfirework s
s on
he st
Ġnet work
r s
Ġwond ers
ĠB eth
Ġturn ing
Ġlip s
Ġdisag reed
Ġhurric ane
bb led
Ġswim s
Ġcirc us
Ġfl ap
Ġrecogn ized
" ,
ĠJ an
Ġle ather
ĠLet Ã¢
Ġb ones
ad ed
Ġfasc in
ĠM oral
Ġw re
Ġgot ten
Ġsk ipping
Ġeas ier
Ġsell ing
Ġmeas uring
Ġon wards
Ġbrid ges
A l
Ġby e
Ġwaff les
Ġsl ip
Ġreve aled
Ġbleed ing
ĠSad ly
Ġs ix
Åĵ Thank
Ġbuild ings
Ġhis t
Ġapolog ize
ĠFr ank
Ġrefre shed
Ġl ect
Ġtre mb
Ġbow ed
Ġplant ed
Ġprun e
Ġo bey
Ġmu ddy
Ġbri ck
Ġhist ory
Ġp itch
se ek
ff ic
Ġcomp any
Ġcudd le
Ġbes ide
Ġwe ight
ĠR a
Ġsecret s
Ġ Qu
Ġacorn s
ĠSund ay
Ġwant ing
Ġlady b
Ġlect ure
Ġglo ves
Ġblueber ry
Ġpe ered
Ġw id
Åĵ We
am b
Ġall ow
Ġpre cious
Ġsett le
Ġsimp le
Ġoff icer
Ġtra ffic
Ġrest ed
ĠSomet hing
ĠP r
Ġser ved
Ġbra nd
Ġwood en
ĠA n
Ġprin ter
Ġstri pes
c c
l oe
Ġkeep er
Ġhapp iest
ĠAnn e
Ġhur ried
Ġevery day
Ġtra pped
Ġsnow ball
joy ed
Ġpet s
Ġminer al
Ġover joyed
Ġfree ze
Ġran g
Ġmon sters
Ġvill ag
Ġwhat ever
Ġguess ed
Ġg ained
ĠB y
Ġcre pt
Ġste el
Ġremind er
Ġim age
Ġdinosaur s
Ġsucceed ed
Ġfiref ight
Sp ot
ĠK e
Ġc al
Ġrain ed
Ġany time
Ġped al
Ġc hat
Ġeff ort
Ġwa ist
Ġwere n
Ġeat s
Ġcut ting
ĠCh loe
Ġsteal ing
Ġsty le
ĠSu zy
Ġp ies
Ġwr ites
Ġcomfort ed
Ġt ip
Ġbring ing
Ġeag le
ĠS ure
ent y
Ġansw ers
le y
Ġr ipped
Ġcatch ing
Ġdoctor s
ĠB ig
Ġso ared
ĠT iny
Ġdra g
Ġfa shion
S he
is hes
Ġz igzag
Ġvisit ing
Ġoat s
Ġshadow s
i en
Ġvillag ers
m ble
ĠJam ie
ĠL ucky
Ġcostum es
Ġche f
Ġvo ices
Ġsc oop
Ġown ed
Ġperm it
Ġm ice
Ġrespons ible
Ġcuri osity
Ġacc om
ĠCo co
ĠA m
Ġb un
m are
ĠThe se
Ġex a
ĠS l
Ġstr uggled
O r
ĠJo sh
Ġbrus hed
n ie
iz ing
ĠSp ark
Ġbre aking
Ġtast es
Ġtwirl ing
Ġdisturb ed
Ġtre mble
Ġper ched
Ġol ives
ĠJul ie
ic orn
Ġun icorn
igg y
Ġkey s
Ġpract icing
Ġpup il
Ġcre ation
Ġgrand mother
Ġsho pping
n eath
Ġdown stairs
ant a
Ġdecor ated
Ġagre ement
Ġreal ize
Ġnight mare
Ġcont ro
Ġland sc
Ġben eath
Ġrid es
Ġpad d
Ġaccom pl
B illy
ter day
d ing
Ġfam il
Ġact iv
Ġexam ined
ĠT illy
Ġsad ness
Ġaccident s
Ġare a
Ġd ied
Ġv ict
ir a
Ġkeep s
Ġbe nd
Ġre le
l en
ĠA d
Ġsne aked
Ġsi ren
Ġbeg in
Ġpe el
Ġrecogn ize
v a
Ġpan cakes
Ġnail s
Ġout do
ĠP ip
ĠL ul
ĠL ike
om ing
Ġemer gen
Ġladyb ug
Ġst ing
Ġag o
Ġsl apped
Ġt ugged
Ġso ak
Ġru in
Ġpe arl
ĠR ob
Ġencou rage
Ġlandsc ape
Ġwa gging
Ġsit u
Ġspid ers
a les
Ġarg ued
ist en
Ġmiss ion
Ġtick ets
i b
Ġst itch
Ġwe ighed
ĠF or
Ġshiver ing
Ġinstr uct
Ġn icer
Ġkn elt
ĠK ay
Dad dy
Ġb are
Ġwonder ing
ĠFl oppy
Ġzoom ing
G ra
ĠS anta
Åĵ Don
Ġcomp le
Ġclap s
g ers
Ġc aut
xy gen
Ġwre ck
Ġexa ctly
Ġex it
ĠSt op
ow ers
Ġunder ground
ĠC ar
Åĵ Can
Ġz ero
Ġwin ning
Ġitem s
Ġdraw s
Ġfire men
Ġstret ching
Ġunl ocked
Ġbun nies
Ġplan ned
Ġpast el
Ġstud ied
Ġsatis fied
Ġc ape
Ġdec ides
Ġshould ers
ĠBu bbles
Ġcontro l
Ġpil es
anna h
i k
Ġjo gged
Ġgather ing
Ġsn ail
Ġpocket s
Ġf etch
Ġsister s
loo king
Ġl ines
Ġd ent
ĠB ir
bb ing
Y e
Ġsupp lies
Ġchallen ge
Ġe ight
ĠM ad
Good bye
. '
Ġunder neath
Ġcon es
Ġtun e
Ġpin ched
Ġfascin ated
Ġinstruct ions
ind a
ak y
ĠC la
ĠC arl
Ġyell ing
Ġsol ut
Ġload ed
Ġre lease
Ġlo ving
Ġbeh a
Ġprop erly
ĠN ina
Ġbucket s
ic a
Ġmix ing
ĠL u
ri age
Ġstir ring
Ġlem ons
ĠRa bbit
ĠLul u
Ġneighb ors
Ġhon k
Ġloo se
Ġdes er
b ies
ĠH oppy
Ġan n
Ġpar ked
ĠSus an
ĠTh om
Ġba ked
Ġoutdo ors
th ank
ĠBet ty
ĠJess ie
Ġd am
as hed
Ġte asing
Ġso aring
Ġlet Ã¢
Ġfro sting
Ġmus cles
Ġbur row
Ġbro om
Ġmach ines
Ġpun ished
Ġwe b
Ġbrus hes
e x
Ġtouch ing
Ġmark s
Ha ppy
Ġincre ase
Ġdri ft
ĠM art
ĠAfter wards
Ġru ler
Ġgun s
Ġcompetit ion
L ittle
o h
Ġto night
Ġour selves
Ġhorn s
Åĵ Look
Ġba bies
u ry
ĠD id
Ġst air
Ġintrod uc
Ġso aked
ag ull
Ġfood s
Ġprin ted
Ġprun es
Ġrele ased
ĠCla ire
Ġo xygen
im y
Ġneighbour hood
Ġtrave ll
o ed
Ġpo king
Ġbu dge
Ġop in
Ġsweet ies
Ġemergen cy
Ġdri ves
Ġrubb ing
d ie
Ġm ittens
Ġpur red
Ġprotect ed
Ġdrag ons
z en
Ġ 1
Ġs ides
Ġli ed
j am
Ġstr ings
Ġmuff ins
Ġse agull
Ġmention ed
Ġt im
Ġin ch
ĠIt Ã¢
Ġvict ory
Ġgigg ling
Ġsight s
Åĵ This
Ġpro ject
Ġb unch
ĠH op
E x
u x
ĠG r
Ġrainbow s
Ġtick le
Ġch ases
Ġdra gged
Ġplan ets
Ġste ep
n es
ĠH a
ind y
Ġwin ner
ĠThom as
b ric
Ġfa bric
Ġbe ard
Ġstudy ing
âĤ¬âĢ Ŀ
k ins
Ġsigh s
Ġpe ars
Ġpe aches
Ġstr uck
ĠO ut
Ġintrod uce
a is
ed nes
Ġv owed
Ġmov ies
Ġl ux
Ġdemand ed
Ġguy s
ick ed
Ġgr ant
Ġsil ence
uct antly
A h
Ġpour ing
Ġscur ried
ĠL ou
Ġbare ly
Ġm ast
Ġe ast
Ġur ged
Ġsto le
ĠJe ff
ĠW ednes
Ġsurf ace
ĠH annah
ĠT ues
ĠM il
Ġpret ti
Ġcr umb
Ġfro zen
Ġpretti est
Ġboun cy
Ġrepe ated
Ġcut s
Ġb ank
ĠB oth
Ġbott les
Ġsaus ages
Ġherb s
Ġsor ted
Ġcrow d
Ġv ent
Ġprin ts
Ġte xture
Åĵ Hello
h ins
Ġw est
ed ding
ĠA bby
ick y
Ġres ult
Ġsl imy
Ġconf ident
Ġcat ches
Ġp out
led ge
Ġkick ing
Ġseas on
Ġcamp ing
Ġapplaud ed
ĠSl ow
er n
Ġcomple ted
Ġsor ting
Ġbloom ed
ĠJ u
ater i
Ġact ed
Ġpolice man
Ġt i
Ġm ateri
Ġscream ing
Ġexp ect
Ġcur ly
Ġsh ock
Ġribb ons
Ġgo als
Ġro aring
Ġch ips
Ġknow ledge
Ġsing er
Ġshel ves
Ġrock ed
Ġpretend s
rr rr
Ġgaz ed
th ough
Ġdiscover ing
Ġrel uctantly
Ġcaut ious
Ġchew ing
ÅĵDon Ã¢
R emember
Ġth reat
ĠP ipp
Ġforg i
Ġhig hest
Ġstri ke
Ġpebble s
Ġpow ers
ĠMat t
Ġw ound
Ġg e
Ġpat ience
Ġintere st
Ġtwink ling
ĠJ ones
Ġstamp s
Ġgood night
av i
ĠAd am
Ġ Yes
Ġcont est
Ġmat ched
Ġent ire
es ome
Ġsolut ion
f it
Ġdust y
Ġincl ude
ex p
ĠL inda
Ġshiver ed
Ġhug ging
ĠZ oom
Ġdolp hins
ĠA unt
Ġmark ers
Ġfl at
Ġcurtain s
Ġdisag ree
as on
Ġimport ance
Ġsitu ation
ĠAl ways
Ġout fit
Ġpengu ins
Ġhome work
Ġgrow l
Ġbl ink
Ġzoo keeper
exp ected
Ġyou th
ĠMom o
Åĵ Oh
Ġus es
Ġgu est
Ġflag s
ber t
Ġsaf er
Ġachie ve
U h
i very
Ġmar riage
Ġrecord ed
Ġtheir s
Ġstick ing
Ġroad s
ĠWednes day
Ġsh ined
Ġagre es
ĠKay la
S omet
Ġfa ult
Ġmat ching
Ġaw esome
z ie
Ġsn ugg
Ġresc ued
cu se
jam as
Ġun expected
Ġwait er
Ġlibr arian
Ġa st
Ġlearn s
Ġpass ing
Ġstar ing
eez ing
b l
ust ed
Ġfig ured
Ġlux ury
n joy
Ġro bb
Ġbalan cing
y ou
or a
ĠE x
Ġmot ion
Ġw edding
ir ts
ĠJen na
Ġspray ing
Ye ah
Ġintroduc ed
v in
Ġdent ist
ĠTues day
Ġla p
Åĵ Why
Ġ Y
Ġpl enty
Ġwork er
Ġcheer ing
Ex cuse
ĠJ on
ac ob
Ġreach ing
Ġsn akes
Ġtow els
Ġdel ivery
Ġst are
Ġex ha
Ġwr itten
Ġarri ve
Ġs way
Ġsc ra
Ġrad ishes
u ly
Ġcan Ã¢
Ġsu itc
Ġw ink
Ġhe el
en a
Ġbloom ing
Ġflav or
ĠDo lly
Ġexp ected
izz ie
Ġdire ction
ĠSlow ly
ĠB ye
un e
Ġtr uly
Ġsl ap
Ġprincess es
id s
im mer
Ġbra very
Ġtra ctor
i ar
ĠM ira
Ġsweet s
W hen
Ġc aused
Ġbe ad
Ġpat ted
Ġpa jamas
Ġth ro
Ġgre et
Ġroll s
Ġrepl ac
Ġpray er
.. .
Ġkneel ed
Ġthro at
it ely
ĠT ess
Ġstore keeper
Ġgrow ling
Ġf art
Ġrock ing
Ġown ers
oy s
Ġcomplet ely
Ġtrave led
ĠChr ist
Ġtremb ling
ĠJ acob
Ġus ual
ul ts
Ġregret ted
C h
Ġro ots
Ġpack ing
Ġl amb
Ġobser ved
Ġf ir
id ing
ĠL izzy
Ġvan ish
Ġexha usted
Ġd ared
ĠJess ica
To day
ĠLu ke
m as
Ġbe lly
Ġrem ote
Ġman e
ĠP inky
Ġwork ers
J ust
Ġhe av
ĠL izzie
Ġseem s
Ġquack ed
Ġyou Ã¢
Ġcrab s
Ġinclud ed
en ces
Ġar gu
Ġsc ales
Ġpaint ings
Ġst ern
Ġrem oved
Ġrock ets
ĠLe ave
Ġcrack ers
Ġwire s
ĠB ess
he llo
Ġorgan izing
Ġbak er
Ġfir m
Ġargu ing
Ġran ger
Ġun ited
Ġclos es
Ġcreat ing
as m
Ġcom m
ĠJohn son
Ġrest ing
he ll
Ġbo om
Ġstart led
Ġopen ing
Ġmiss es
ĠM on
Ġle ap
Ġfl ames
Ġsl ed
Ġwander ing
Ġch uck
Ġpart ic
Ġheal ed
Ġknight s
Ġstrugg le
ĠJul ia
Ġreve al
op es
ang led
ĠChrist mas
g o
ĠM o
Ġrub s
Ġtim er
Ġvent ured
ver s
Ġlead er
le e
Ġwor ries
Ġpencil s
a ze
Ġd en
Ġinv iting
Ġcrumb s
Ġsees aw
R o
Ġwasn Ã¢
Ġb oo
Ġwas ted
Ġr isk
ĠC indy
Ġdes ert
Ġlollipop s
Ġitch y
ĠHa ppy
d ies
F ine
Ġc ent
ol ine
Ġrelie f
ĠFo llow
ct ions
Ġfair ies
Ġpast ries
Ġrep ly
ĠQu ack
ĠB o
ĠJ azz
Ġmask s
Ġbalan ced
Ġwin ked
ĠBe ing
Ġcountry side
Ġc ott
ĠBu zzy
Ġscr u
Ġtrip s
Ġfu zzy
ĠM el
Ġdark ness
ais ies
Ġmelt ing
T hen
Ġw ow
Ġlo gs
ĠF riend
Ġun f
Ġpot s
Ġaccompl ish
Somet imes
Ġus ually
ĠDo ggy
Ġpol ished
Ġpol ishing
Ġhelm ets
Ġsneak y
B ad
ĠTw o
Ġpee king
Ġactiv ities
Ġd aisies
Ġcan s
ĠP ut
Ġval ued
Ġbead s
ĠSu zie
Ġtwink le
ĠT ara
Ġg aze
Ġpartic ular
Ġhow ever
Ġcra cked
Ġsign ed
Ġpadd led
Ġf ara
Ġsn at
ĠC he
Ġinterest ed
Ġfara way
ĠS orry
Ġbec oming
Ġnap s
Ġb umpy
Ġr ings
Ġst em
ĠM any
ĠE l
Ġevery body
bo at
Ġsil ent
Ġsnowball s
Ġc ause
Ġc ough
Ġsl am
Ġsing le
Ġcolour ed
Ġwr ist
ĠR obby
Ġsandcast les
Ġyou nger
Ġhis sed
Ġsp ike
ĠE njoy
Ġcon n
ĠMil o
ĠP andy
ĠO w
Ġd ipped
Ġse ven
Ġf reed
Ġsw irl
Ġphot os
Ġrest ored
Ġteac hes
Ġpast els
Ġl ined
Ġcop y
Ġwigg led
Ġreplac ed
ig i
Ġfore head
Ġopin ion
ĠW atch
Ġsw ooped
Ġblow s
p ite
Ġh i
Ġso bbed
Ġstay ing
Ġsuitc ase
ĠM ick
Ġbak ery
Ġfirefight ers
ik i
Ġcautious ly
Ġti pt
Ġc ous
Ġsplas hes
Ġdire ctions
ĠEvery body
Åĵ Mommy
ĠOl ive
ĠD ays
ĠNot hing
ĠB ird
Ġprov ided
ĠFo x
Ġc ash
Ġl ung
Ġwe ars
Ġfill ing
Ġswe at
ĠL arry
ĠEx c
Ġchuck led
r ance
Ġfa ced
Ġtall est
Ġaw ake
Ë ľ
âĤ¬ Ëľ
Ġbowl s
Ġtick led
Ġcover s
Ġexplore rs
Ġyes terday
Ġyour selves
br ush
Ġa ff
Ġs ense
Ġp iggy
itc hes
ĠKe ep
Ġtri cked
Ġne ct
Ġscar ves
Ġnect ar
Ġmar ked
Ġglass es
ĠExc ited
Ġst ays
Ġtw in
Ġple asure
Ġseas hell
Ġcolor ed
Ġdeterm ination
ĠMart ha
bb ly
Ġatt ack
ĠWith out
Ġknock s
Ġpoem s
Ġcal med
R un
h ile
ar ter
Ġde al
Ġlight er
Ġhid er
Ġact ions
Ġkick s
Ġseek er
Ġadd ing
Ġref le
Ġmagn ets
Ġsque aled
or ds
Ġr ipe
Ġjo king
ĠFin n
Ġrecord ing
Ġro ses
ĠG igi
Ġcand ies
m ies
ĠS que
Ġstro ll
Ġflutter ed
Ġbad ge
Ġbump s
b oo
Ġt y
Ġsm arter
Ġback ed
ÅĵWhat Ã¢
Ġlisten s
Ġbuy ing
Ġmark er
ĠMike y
Ġped als
Ġprotect ing
Ġgrocer ies
Ġb ars
Ġheal th
aff es
Ġkne es
Ġsto len
il es
Ġsome body
Ġread s
Ġsec ure
Ġgir affes
Ġfart her
ĠE ls
Ġdark er
Ġcelebr ation
ĠL au
dd led
ĠG et
ĠEm my
n ers
Ġd ots
ĠE arth
Ġinsect s
ur ry
Ġp ause
pp ers
Ġli qu
Ġfro ze
Ġent rance
Ġtrick y
ĠMay a
Ġcomplain ing
Ġpout ed
Th ose
Ġclown s
ĠA sh
Ġvide os
ĠPr in
Ġth orn
ĠA bbie
ĠD r
Ġpart ies
Ġwip es
Ġm i
Ġru le
Ġtalent ed
Ġbegin ning
Ġg lee
Ġch oo
co at
he e
ĠB inky
Ġsmile y
Ġsnat ched
Ġmi xture
Ġo pp
Ġmil es
il ity
Ġbeh avi
Ġcow b
ĠRo ver
Ġcub es
Ġk ites
Ġhand ful
Ġpay ing
Re x
ab el
Ġinstr um
r ig
t le
y ond
Ġbe yond
Ġno on
Ġsal ty
Gra ndma
Ġcash ier
Ġm es
ar ling
Ġin sp
Ġste er
Ġmes mer
ri ous
Ġcl ick
ĠLau ra
b and
ĠN an
Ġrain coat
Ġspe aking
Ġtask s
Ġweep ing
Ġt angled
ĠL ena
ĠP l
Ġdeliver ed
Ġrust y
b ell
il ed
ĠW ater
are n
ig ers
ind r
Ġfamil ies
c ope
o ssible
Ġw ins
Ġimp ossible
th s
Ġafter wards
Ġsnow men
Ġarrow s
Ġwid ened
Ġl ower
ch oo
Ġra indr
ĠSoph ia
t uce
Ġlet tuce
Ġgem s
Ġimpro ved
u zz
ĠS w
or med
ĠP o
Ġact ing
Ġfold ing
Ġdrum s
Ġstro ked
Ġliqu id
ou ch
ĠBlue y
Ġbatter ies
Ġrecommend ed
al ph
?" ,
Ġte ased
ĠK iki
Ġcheek s
ĠSad ie
Ġchef s
? '
ĠP am
Ġyell s
Ġcup cakes
ĠPrin cess
N ext
Ġneed les
Ġsail boat
Ġsh irts
se qu
ĠN ick
Ġcho ices
Ġobject s
ĠS qu
an es
Ġru ining
Ġmushroom s
Ġhesit ated
ĠB ee
Ġpass en
Ġdi ving
Ġscar ing
iv ity
Ġjack ets
Ġcon sequ
ĠRo bert
Ġornament s
it ched
Ġc ust
Ġwe e
ĠC u
ĠJ une
Ġsn uck
Ġbed time
Ġsquare s
Ġcompl ained
n o
Ġcream y
Ġast ron
Ġr umble
Ġfe ver
Ġscrew s
Ġminer als
Ġscru bbed
c ers
Ġr ip
Ġgra bbing
Ġlead ing
Ġcreat ivity
Ġwra pping
ĠZ ip
ĠGood bye
Ġt igers
at ul
st y
ĠJ ay
umb ling
Ġcelebr ating
Ġbeha ved
rig ued
ĠF ar
Ġwouldn Ã¢
Ġind eed
Ġpad dle
Ġachie ved
Sh h
Ġswims uit
Ġraindr ops
Ġcust om
end y
Ġfe ars
st ep
Ġbase ment
Ġsi bl
Ġastron aut
Ġsibl ings
m allow
Ġscrat ches
arsh mallow
Ġstom ped
Ġaccomplish ment
Ġno ses
ĠC ra
Ġlo sing
ep t
Ġpoin ty
Ġdeser ve
Ġconsequ ences
k y
Ġpupp ies
ĠSpark y
Ġann oy
G reat
Ġth ird
Ġne ither
Åĵ Do
an s
Ġbe am
Ġst ung
Ġch op
Ġdoll house
Ġexper ien
Ġbur st
ĠAb i
Ġflutter ing
n e
Ġc or
Ġback wards
ĠJack y
Ġh us
ĠS c
Ġfl apping
Ġtem pt
Ġdrift ed
Ġtipt oed
c l
v est
Ġl un
Ġsw ept
Ġde f
ĠTo dd
Ġwrap s
Ġhall way
Ġtravell ed
Ġy um
Ġhid es
Ġsour ce
Ġavo id
Ġtem per
Ġdad s
ĠThank s
Ġpan s
d ed
ig ning
Ġwon Ã¢
ndp are
ĠH oot
Ġhear ing
ĠK aren
ĠM a
ang ing
Ġpeace fully
Ġsunfl owers
Ġart ist
L e
Ġl imes
Ġare n
Ġsa le
Ġplay ers
ĠD uring
Ġmateri als
o ey
Ġgra ndpare
Ġtr amp
Ġsqu ish
Ġprom ises
Ġforget s
Ġgrace fully
ĠRo bbie
Ġ Q
Ġe ch
Ġac he
Me ow
ĠBess ie
in t
Ġm arshmallow
itt ed
Ġdan ces
Ro ar
Ġg ross
at ur
Åĵ Wow
Ġbel oved
Ġriver s
ĠSn ugg
Ġperform ance
Ġunpack ed
on i
ak er
Ġcudd ly
Ġsprink led
Ġdam age
u ing
ke nd
Åĵ Come
Ġgrow ls
immer ing
Ġtramp oline
ĠS un
Åĵ Hi
Ġpress es
Ġhus band
ĠAl though
ĠZ oey
ÅĵYou Ã¢
Ġwee kend
H ave
c us
Ġwill ing
Ġhands ome
Ġsnow fl
ĠAl ong
Ġslam med
J ane
Ġd arling
ĠS im
Ġre fu
ue en
ĠG ina
E w
Ġr ising
ad es
ĠM abel
Ġneighb ours
Ġsecond s
Ġaff ord
W oof
Ġcon cer
Ġmagic ian
Ġh itting
Ġon ions
Ġfa ct
ĠSt ella
Ġzebra s
ĠR alph
ĠSnugg les
L ucy
ĠW endy
Ġch ip
Ġhead ing
Ġtemper ature
Ġbo dies
ong r
Ġgrass y
Ġtail s
Ġinclud ing
el ia
Ġwind y
Ġam ong
ĠB oun
Ġdiscu ssed
ongr atul
p r
Ġst ain
Ġdoll ars
ĠR emember
Ġlean ing
Ġcent er
Ġa ud
Ġc oup
Ġpret t
Ġgas p
ll en
Ġmus cle
Ġneat ly
ĠFro g
Ġheav ier
Ġw oof
nt il
Ġhelp ers
Ġpe cked
Ġcolor ing
Ġcount s
Ġsea w
Ġrep a
Ġsepar ated
T ime
Ġsl ices
Ġblock ing
Ġdecor ating
Ġreward ed
ĠMick ey
ri ver
Ġprin ting
Ġenthus i
Ġwarn ings
Ġg ri
ad os
Ġtree house
Ġcre ations
Ġdream t
Ġhor iz
Ġtunn els
ĠFro sty
Ġhesit ant
Ġprett ier
Ġrepa ired
Ġenthusi asm
W hee
Ġwa g
Ġm er
Ġm erry
Ġme als
Ġad ult
Ġshr inking
Ġembarra ss
ĠNo body
ĠU ntil
Ġborrow ed
Ġdesign ed
Ġrequest ed
Ġto uc
Ġstud ents
Ġsurround ings
Ġrobb er
Ġseaw eed
Ġhoriz on
Ġn ine
Ġpray ing
Ġswan s
Ġsnugg le
ĠQ ueen
O ops
fu s
Ġbow s
Ġplan s
Ġplan ning
Ġfeed ing
Ġdo d
Ġre ass
Ġint rigued
Ġsuperhero es
ĠBir thday
ĠL i
Ġz ipping
Ġcous in
Ġcoup le
Ġun s
Ġthr own
Ġ1 0
ĠFar mer
y es
Ġgo bbled
ĠW ally
Ġpot ion
Ġstar fish
Ġbreat hed
Ġd et
Ġst ool
Ġal ien
ĠT una
ie ce
ĠE va
ĠR y
ĠR ock
ott en
Ġimag ining
ab ly
ĠMe g
Ġforgi ven
Ġaud ience
ĠO wl
Ġrec ipe
cc oon
it ion
Ġra ccoon
Ġpop s
Ġmatter s
Ġspread ing
Ġfork s
Ġtriang les
Ġbuzz ed
ĠSque aky
ĠS ince
Ġbl ast
Ġslow er
ĠSt ar
Ġvan illa
Ġavoc ados
Ġtouc hes
Ġn ibb
Ġwo bbled
Ġd ie
Ġta pped
Ġsail ors
Ġrust ling
ĠGr anny
Ġtw ice
Ġhon ked
Ġhero es
a el
Ġh our
ĠL isten
Ġas ide
ment s
v il
Ġr opes
Ġr otten
Ġfl as
Ġwip ing
Ġrefle ction
Ġco nd
Ġgarden er
w k
ed s
it ude
Ġsc amp
Ġcurious ly
Ġwis hing
Ġthu d
Ġgrant ed
Y ummy
Sam my
Ġge ese
T w
st ick
Ġle ast
Ġag e
Ġbu lly
Ġwr ink
ich ael
Ġdeliver ing
Ġmarshmallow s
id o
ĠF ire
Ġstreet s
Ġgrandpare nts
B oo
Ġsp ikes
Ġar r
Ġbath s
ĠJu dy
Ġsp ong
Ġpo ster
ĠTh ose
Ġnap kins
Ġneckl aces
Ġsque ak
Ġfamil iar
Ġscra ped
Ġgl ued
- -
ar row
ĠRy an
S ome
e al
ĠB ack
Ġpo ss
Ġshap ed
Ġt iss
Ġp ins
Ġch os
Ġch anging
Ġdra wn
Ġchos en
Ġn ood
Ġpl ain
Ġwe pt
un ched
ent ly
ĠA ng
Ġspark s
Ġshop s
ert ain
Ġsport s
ĠF ido
Ġsk unk
Ġfo cu
Åĵ My
Ġhedge ho
ĠJan ie
Ġlun gs
J enny
S ue
Ġpe ppers
Ġhope ful
Ġbell s
ĠZ ara
Ġtest ed
Al ice
Ġfirefight er
Ġguest s
ĠSim on
O ur
Ġso fter
Ġre ason
Ġfe ast
Ġwarm er
Ġexp ress
Ġgreet ed
Ġcor re
e ars
ĠT ake
Ġn ur
Ġtalk s
Ġscrew d
ĠFriend s
f all
Ġm oo
Ġha wk
Ġpl ucked
ug s
Ġdan cers
oun ced
Ġwhisp ers
Ġflav ors
t he
ĠS pl
ĠM ichael
Ġjoy ful
Ġstand s
Ġlift s
Ġdi ved
Ġpu ff
Ġforget ting
ĠOn ly
Ġrespect ed
Ġfocu sed
au sing
Ġcorn ers
ĠO ur
Ġspoon ful
Ġscrewd river
Ġm unch
Ġp ens
ir rel
all owed
Ġco c
Ġsw allowed
Ġremember ing
Ġthrough out
ĠSt ay
ĠMad dy
Ġmesmer ized
Ġspong e
L ike
ara c
Ġexpl o
Ġcre w
Ġsniff s
Ġresist ed
S ally
Ġto dd
Ġe arn
ter s
Ġpe ck
Ġwater ing
ĠJack ie
ĠChr is
ĠAsh ley
Ġp ours
ck y
Ġfl ight
Ġdro pping
ĠBa a
Ġwigg le
Ġsa n
ĠL ove
Ġne are
ast er
Ġsend ing
Ġcra ft
ĠDave y
Ġsl ips
Ġlead s
Ġsew ing
ĠAm elia
i ppy
ĠM ina
Ġbit ing
.. ."
f ly
Ġo h
sh ions
Ġwar ri
Ġde fe
Ġpol ar
ĠPipp a
Ġhedgeho g
Ġpan icked
Ġsan k
Ġwa kes
Ġsp ins
Ġsn eezing
Ġwo bbly
Ġru shing
Ġdress er
Ġdraw ers
Ġpost man
Ġoy sters
Ġpupp et
Ġm ate
Ġr out
Ġbl inking
ĠU nder
ye ars
Ġshark s
Ġhuman s
Ġfreed om
Ġtiss ue
v ant
pp ies
Ġro ars
Ġstrong est
Ġprop er
ĠH oney
ĠL ia
Ġe vil
Ġsp ices
Ġgrow s
ĠFl op
Ġdriver s
Ġlift ing
Joh nny
m ates
Ġto ssed
ay ing
Ġg est
im ent
Ġch arac
Ġcon fl
Ġcra shing
Ġjoin ing
Ġtoast er
Ġstack ed
Ġincre ased
Ġf aded
Ġwr igg
Ġresp ond
ĠAl i
Ġquarrel ing
Ġpassen gers
w hile
Ġa imed
Ġon ward
Ġsw ords
Ġoff ic
eez es
Ġsquish y
c ake
Ġn apping
Ġsp at
Ġsa dd
le ts
ch ild
Ġam ount
ĠThat Ã¢
ĠU p
ĠFro ggy
Ġscamp ered
Ġd ip
Ġtable s
Ġpige ons
Ġtremb led
ĠPipp in
E very
Ġthat Ã¢
Ġsc en
bb a
Åĵ Now
urpr ise
Ġste ady
Ġpen nies
Ġpro ve
ĠLou ise
Ġmast er
M ine
ro ken
Åĵ Mom
Ġyield ed
ĠSqu irrel
f ire
Ġs y
Ġdoor way
Ġgrand child
Ġload ing
ĠCu rious
Ġtodd ler
u pt
Ġ 2
ĠW ell
Ġtr ot
Ġrefre shing
ĠQu ick
Ġleap t
in o
Ġwa ddled
Ġd aring
Ġsc ored
ĠF e
me al
Ġfit s
ĠPat ty
Ġencou rag
Ġappreci ation
p lease
Ġc oral
Ġo cc
Ġplay room
Ġrain y
Ġlesson s
ĠMe an
rrrr rrrr
ĠEl iz
Ġt ies
on na
Ġwor n
Ġco sy
Åĵ Well
Ġhop s
Ġnervous ly
Ġgrand d
Ġnood les
j o
l ves
Ġpo ppies
Ġang els
rr r
Ġoat meal
Ġuns ure
re y
Ġthought s
ret ty
Ġprep aring
Ġbeha ving
on ies
Ġre un
ile y
Ġmon ths
Ġfirm ly
V ery
Ġp ound
Ġsl ither
ĠK elly
Ġtwist y
ĠM ouse
Ġtable t
Ġcloud y
Ġmin ts
Ġpump kins
Ġfiref ly
ĠBir dy
F o
he w
Ġc ausing
ĠB ecause
ĠD es
Ġcu shions
b ird
Ġn uzz
Ġplay time
Ġman ag
bb ling
ion a
Ġgigg les
Ġdesign s
Ġt uck
ĠI m
Ġcl ues
Ġpol itely
Ġlay ing
Ġfle as
Ġshovel s
Ġpassport s
Ġnot es
Ġcon vers
Ġworry ing
Ġsail s
ĠSt ill
ĠMean while
b age
o dy
Ġg onna
en ing
Ġst itches
ĠE lly
ĠF u
ĠR ay
Ġcold er
Ġel f
Ġgar bage
Ġstream ers
Ġsurrender ed
Qu ick
A my
d ress
ĠMom ma
Åĵ But
Ġrain s
Jo e
Ġin j
ant ha
Ġover come
Ġbat tle
Ġact ion
Ġrever sed
Ġres ults
Ġsuffer ing
Ġt ipped
Ġp onies
Ġsh own
Ġbr u
Ġbehavi or
b roken
Ġnear ly
Ġcho pped
ÅĵI f
Ġfrown ing
Ġconn ected
W atch
b ut
v room
ĠT ry
Ġblock ed
Ġperform ing
ĠPat ch
Ġbreat hing
ĠMad die
Ġdef in
ĠDan i
allow een
ĠJe an
Ġa is
Ġc oug
ĠA ny
ĠF iona
Ġbra vest
Ġbel ts
Ġduck ling
Ġdist ract
Ġign oring
Ġsell er
Ġsuit s
Ġloop s
Ġech oed
a by
ĠH alloween
Ġsc ient
Ġpaint brush
Ġband ages
Ġencourag ing
Ġscient ist
Ġt il
Ġk ittens
Ġpr ob
Ġad ults
Åĵ Where
Ġsqu eezing
Ġtwink led
Ġc ertain
is c
ĠA lly
Ġan ger
Ġgu ide
Ġqui eter
Ġheal ing
Ġlick ing
Ġrisk s
Ġprob ably
Ġs ou
Ġc ongratul
ight ing
Ġfin ishing
Ġhair dress
Ġperf ormed
Ġpath s
Ġcross ing
Ġcomm un
Ġp ays
iss a
Ġed ges
Ġfrown s
Ġseashell s
Ġdefin itely
pp a
el ing
Ġwo bble
Ġsur v
Be ep
Ġsnowfl akes
C l
E m
F l
c ent
Ġfl own
Ġpack ages
Ġremind ing
Ġsymbol s
Ġwid er
Ġforgi ving
Ġoffic ers
Ġhairdress er
S urprise
Åĵ Okay
Ġclean er
ĠBu bba
Ġsuggest ion
Ġn i
Ġsh ady
Ġsl ipping
Ġhand ing
Ġtravel s
Ġpunish ment
Ġthorn s
Ġgest ure
Ġ X
Ġf ant
ri e
Ġsn ort
Ġdr own
Ġfill s
Ġrepe ating
Ġbrus hing
ĠFlop sy
Ġconfl ict
B un
Ġe ase
Ġu nd
Ġr ather
ĠB ow
Ġk ings
ĠSam antha
ast y
Ġun w
us hed
Ġtight er
Ġfigure s
Ġsurf ing
und red
Ġappreci ated
Ġscur ry
Fo llow
i bbit
Ġso aking
Ġpuzz led
Ġcobweb s
Ġge ars
? !"
Ġse ver
dd ie
ĠJane y
Ġheart broken
Ġpur r
ĠDes pite
c her
Ġsmall est
Ġfin al
Ġsniff ing
Ġtub es
Ġcott age
Ġgrandd aughter
Ġsever al
Ġy el
ri an
Ġsweet est
Ġbus es
step s
Ġmer ma
L isten
Ġb less
Ġd arl
Ġpe as
Ġexplore r
ĠSt an
Ġadd ress
Ġcamp fire
Ġdam aged
ĠExcited ly
Ġwarri or
Ġyel ped
Ġdarl ings
c a
ĠJ ax
dd ing
Ġv ines
Åĵ Of
ĠR uth
Ġbit s
ĠMar ie
Ġtravell ing
Ġhe ight
Ġfl ipped
ĠSo f
Ġsto pping
ath y
Ġtri cycle
Ġunderstand s
Ġwhist les
Ġfoot steps
Ġrobot s
ĠSnow man
Ġreun ited
ĠFu zzy
M ary
Ġbrace lets
Ġdisturb ing
Ġbury ing
Ġbother ing
Ġspit s
ĠKe vin
Ġcott on
Ġfant astic
I n
w orm
ide y
Ġbird house
Ġsw o
ĠG reen
Ġbelie ving
Ġban ged
Ġt ying
on se
lp h
em ma
ĠP u
Ġresp onse
Good night
Ġcudd les
Ġrespons ib
ĠSpl ash
Ġswo llen
f ound
Ġst all
Ġla pt
Ġch anges
Ġwater fall
ĠP retty
ĠSp e
Ġsmell ing
Ġel bow
Ġant ic
Ġcrown s
Ġmagn if
Ġaccompl ished
Ġinstrum ents
Ġs ill
Ġsp ies
ust y
ĠJo an
Åĵ Please
Ġcoll ap
Ġgen ie
Ġaw o
c row
Ġkn ots
Ġco ach
Ġche ers
ĠSp idey
ail s
ĠSt art
Ġexam ining
Ġsurf board
Ġeffort s
m s
ĠB on
el ie
Ġra ces
Ġbasket s
Ġship s
Ġped aled
ĠQuack ers
Ġcowb oy
ĠFe eling
ut ter
ĠI zzy
Ġj ars
Ġme mb
Ġwho se
ink le
ĠP en
ĠZ oomy
Ġwis ely
Ġenc ount
Ġluck ily
Ġocc as
Ġmemb ers
J en
T eddy
a bby
Ġwith in
ĠE ddie
Ġcomfort ing
Ġdrive way
ĠFred die
Ġcorre ctly
Ġlapt op
i ens
Ġt ar
Ġal iens
ook y
ĠF ighting
Ġforest s
Ġguess ing
Ġspell s
Ġlend ing
V room
Ġh undred
Ġm ood
Ġre app
Ġsurpr ising
Ġcon qu
ĠR ain
Ġswe ep
Ġsuff ered
ĠJon ny
ĠA na
Ġex cept
Ġbra ver
ac les
Ġcalm ly
Ġwhisper ing
Al right
Ġpeel ed
G et
T ake
f ather
Ġ Okay
ĠT ime
âĤ¬ ,
Ġmail ed
per ate
Ġhum ming
Ġpri ck
Ġsupport ed
Ġtrot ted
L isa
re st
Ġl ent
Ġn asty
ĠH olly
Ġsh oo
Ġtow ard
ĠR ud
ĠDo g
ugg ing
Ġple aded
atter ed
ĠPe pper
Ġexerc ises
ĠMe gan
Ġgri p
Ġreass ured
o lph
is ions
Ġst umble
ĠA va
ĠW il
Ġnew found
Ġfin s
Ġbus iness
Ġaf ar
Ġwindows ill
Ġspill s
ĠEls ie
Ġli es
Ġplant ing
Ġtwist ing
Ġsque aked
Ġdelay ed
a a
w he
ĠT y
id er
ĠHe len
Ġwe eds
Ġmar ve
Ġfis hes
Ġnur ses
isc uit
m ered
Ġm aker
ing er
ig hing
Ġr ays
Ġsc ent
ĠD uck
ĠP h
Ġstor ed
Ġclass mates
mand a
Ġsew ed
Ġpupil s
Ġhe n
Ġwas ting
Ġg ap
Ġsp y
Ġal though
Ġdec isions
Ġtast ing
Ġve gg
Ġaw are
Ġspeed ing
Ġstom p
Ġactiv ity
Ġmast erp
Ġmateri al
Ġarr anged
l or
ĠB ong
ad ing
ĠBe cky
Ġglitter ing
Ġannoy ed
ĠRud olph
in ted
ĠS k
ri er
Ġtre ated
Ġfo cus
Ġte les
so l
Jo ey
Ġsol ving
ĠPe ppa
ĠMa e
Ġteles cope
l ine
p en
w ise
Ġ icing
or der
ch y
ĠA manda
Ġgood by
Ġdiscuss ing
Ġnibb led
Ġsp ed
Ġsp ooky
Ġbu ddy
Ġtw eet
Ġjo ins
Ġperm itted
Ġgaz ing
Ġrefu se
Ġawo ke
Ġgoodby es
a ven
Ġd ot
Ġd ep
Ġd ump
Ġg er
Ġr in
Ġdoor bell
ĠO ther
Ġdes pite
ĠZ ero
Ġscare crow
Ġweal th
Ġpand as
Ġexplain s
Ġpur rs
ĠSof ia
ĠBong o
Ġch arge
Ġdec l
ĠP in
Ġteacher s
ĠEll e
Ġhon king
Ġapolog ised
ĠSee ing
Ġsimp ly
ĠDani el
Ġcongratul ated
r up
Ġex ch
Ġta pping
Åĵ Hey
Ġbelong ings
Ġimag es
Ġtool box
fl ies
ĠCra bby
ĠLi am
ĠSpe edy
M andy
Ġch illy
ĠG ary
ĠSt itch
Ġser vant
ĠRu fus
Ġvegg ies
ow ing
ip es
illi am
Ġcover ing
Ġcryst als
ĠRo ger
Ġstud ent
Ġwigg ly
Ġsweat y
Ġsy rup
Ġmasterp iece
Ġlo ses
ild a
Ġfire s
Ġtrouble s
Ġarg um
Ġencourage ment
ĠPo or
Ġconcer t
ĠStart led
Ġunt ied
Ġun fortunately
ac le
Ġpurp ose
Ġpicnic s
ĠKat y
Ġty pe
Ġinsp ired
W h
b ec
Ġh oo
er k
Ġbe a
am my
ĠB rian
ĠM other
ell e
Ġtr ans
and a
Ġsqu aw
Ġemer ged
ĠRob o
Ġni bble
Ġsa v
Ġsw ap
Ġthan king
ĠC le
Åĵ See
iv ia
ab ra
Ġconn ect
ĠS atur
ĠD ory
Ġpo sit
Ġcon vin
Ġfox es
sc reen
Ġpresent ed
Ġchocol ates
Ġdisplay ed
Ġinsist ing
Ġmosquito es
Ġwound s
Ġattack ed
Ġbeam ing
Ġcoc oon
Ġantic ip
w e
Ġfa iled
Ġjo ked
Åĵ The
Ġwarm ly
Ġscr am
Ġpray ers
Ġord ers
Ġgrand son
ĠOut side
Ġrobb ers
Ġopp os
Le ave
Ġtar get
r ily
at s
ĠW elcome
Ġqu e
Ġvi br
Ġvehic les
Ġstern ly
Ġmerma id
ĠS e
Ġse als
Ġcle ared
Ġterri fied
Ġgrand father
Ġbackpack s
Ġincre asing
ĠTess a
ĠEls a
Ġastronaut s
Ġconvers ation
Ġscurry ing
Ġtrans f
w hat
Ġcl erk
Ġno dding
ĠP ing
Ġmagaz ines
Ġflap s
Ġcustom ers
Ġa im
ĠW illiam
ĠP ick
Ġvisit ors
Ġlip stick
Ġwrink led
ĠAng el
ĠSatur day
Ġoppos ite
f ive
Ġb itten
ĠS mo
Ġfl ips
au la
Ġtw enty
Ġsun screen
Ġdis o
ĠFl o
Ġresc uing
Ġtire s
Ġmate y
s m
it s
oo king
Ġmom mies
Ġwh oo
Ġpe ep
Ġend s
Ġtid ied
ĠZ ee
Ġturt les
Ġotter s
Ġtap ed
ĠNan a
Ġneare st
Ġanticip ation
Ġshe ets
ĠM an
ĠW in
Ġman ners
Ġunt ie
Ġdress ing
Ġju d
Ġdragon fly
Ġzoom s
Ġrat s
Ġadmir ation
Ġexperien ced
Ġencount ered
Ġque ens
D ear
M r
Ġre ly
Ġlo c
Ġdan gers
Ġdis c
Ġadd s
ĠLiz a
ĠAunt ie
Ġtil ted
g ain
Ġbl ond
Åĵ A
Ġtest ing
Ġcrawl s
Ġlab els
Ġais le
Ġsurv ive
p it
