{"<pad>":0,"<s>":1,"</s>":2,"<unk>":3,"!":4,"\"":5,"#":6,"$":7,"%":8,"&":9,"'":10,"(":11,")":12,"*":13,"+":14,",":15,"-":16,".":17,"/":18,"0":19,"1":20,"2":21,"3":22,"4":23,"5":24,"6":25,"7":26,"8":27,"9":28,":":29,";":30,"<":31,"=":32,">":33,"?":34,"@":35,"A":36,"B":37,"C":38,"D":39,"E":40,"F":41,"G":42,"H":43,"I":44,"J":45,"K":46,"L":47,"M":48,"N":49,"O":50,"P":51,"Q":52,"R":53,"S":54,"T":55,"U":56,"V":57,"W":58,"X":59,"Y":60,"Z":61,"[":62,"\\":63,"]":64,"^":65,"_":66,"`":67,"a":68,"b":69,"c":70,"d":71,"e":72,"f":73,"g":74,"h":75,"i":76,"j":77,"k":78,"l":79,"m":80,"n":81,"o":82,"p":83,"q":84,"r":85,"s":86,"t":87,"u":88,"v":89,"w":90,"x":91,"y":92,"z":93,"{":94,"|":95,"}":96,"~":97,"¡":98,"¢":99,"£":100,"¤":101,"¥":102,"¦":103,"§":104,"¨":105,"©":106,"ª":107,"«":108,"¬":109,"®":110,"¯":111,"°":112,"±":113,"²":114,"³":115,"´":116,"µ":117,"¶":118,"·":119,"¸":120,"¹":121,"º":122,"»":123,"¼":124,"½":125,"¾":126,"¿":127,"À":128,"Á":129,"Â":130,"Ã":131,"Ä":132,"Å":133,"Æ":134,"Ç":135,"È":136,"É":137,"Ê":138,"Ë":139,"Ì":140,"Í":141,"Î":142,"Ï":143,"Ð":144,"Ñ":145,"Ò":146,"Ó":147,"Ô":148,"Õ":149,"Ö":150,"×":151,"Ø":152,"Ù":153,"Ú":154,"Û":155,"Ü":156,"Ý":157,"Þ":158,"ß":159,"à":160,"á":161,"â":162,"ã":163,"ä":164,"å":165,"æ":166,"ç":167,"è":168,"é":169,"ê":170,"ë":171,"ì":172,"í":173,"î":174,"ï":175,"ð":176,"ñ":177,"ò":178,"ó":179,"ô":180,"õ":181,"ö":182,"÷":183,"ø":184,"ù":185,"ú":186,"û":187,"ü":188,"ý":189,"þ":190,"ÿ":191,"Ā":192,"ā":193,"Ă":194,"ă":195,"Ą":196,"ą":197,"Ć":198,"ć":199,"Ĉ":200,"ĉ":201,"Ċ":202,"ċ":203,"Č":204,"č":205,"Ď":206,"ď":207,"Đ":208,"đ":209,"Ē":210,"ē":211,"Ĕ":212,"ĕ":213,"Ė":214,"ė":215,"Ę":216,"ę":217,"Ě":218,"ě":219,"Ĝ":220,"ĝ":221,"Ğ":222,"ğ":223,"Ġ":224,"ġ":225,"Ģ":226,"ģ":227,"Ĥ":228,"ĥ":229,"Ħ":230,"ħ":231,"Ĩ":232,"ĩ":233,"Ī":234,"ī":235,"Ĭ":236,"ĭ":237,"Į":238,"į":239,"İ":240,"ı":241,"Ĳ":242,"ĳ":243,"Ĵ":244,"ĵ":245,"Ķ":246,"ķ":247,"ĸ":248,"Ĺ":249,"ĺ":250,"Ļ":251,"ļ":252,"Ľ":253,"ľ":254,"Ŀ":255,"ŀ":256,"Ł":257,"ł":258,"Ń":259,"he":260,"Ġt":261,"Ġa":262,"Ġs":263,"Ġw":264,"nd":265,"Ġthe":266,"ed":267,"Ġand":268,"Ġto":269,"Ġb":270,"in":271,"Ġh":272,"re":273,"Ġwa":274,"ou":275,"Ġf":276,"it":277,"ĠT":278,"Ġc":279,"Ġl":280,"Ġd":281,"er":282,"Ġhe":283,"Ġm":284,"Ġp":285,"Ġwas":286,"om":287,"Ġo":288,"ĠThe":289,"ay":290,"ar":291,"is":292,"ing":293,"il":294,"Ġg":295,"id":296,"ĠS":297,"at":298,"en":299,"Ġn":300,"Ġsa":301,"Ġha":302,"an":303,"im":304,"or":305,"on":306,"Ġit":307,"ĠH":308,"Ġth":309,"ll":310,"Ġ\"":311,"le":312,"ot":313,"ĠShe":314,"Ġher":315,"et":316,"ir":317,"ĠThey":318,"ĠHe":319,"es":320,"Ġin":321,"ver":322,"ut":323,"ow":324,"ck":325,"ĠL":326,"Ġy":327,"Ġe":328,"Ġu":329,"ld":330,"oo":331,"Ġsaid":332,"ily":333,"ig":334,"Ġr":335,"ĠI":336,"Ġbe":337,"am":338,"Ġst":339,"ke":340,"ce":341,"ve":342,"ith":343,"pp":344,"Ġshe":345,"Ġwith":346,"Ġyou":347,"Ġon":348,"On":349,"ĠLily":350,"ked":351,"ri":352,"Ġof":353,"Ġpl":354,"nt":355,"ĠB":356,"ad":357,"Ġhis":358,"Ġso":359,"very":360,"Ġday":361,"Ġthat":362,"Ġplay":363,"Ġup":364,"Ġthey":365,"Ġhad":366,"st":367,"Ġwe":368,"Ġmom":369,"ĠM":370,"Ġfor":371,"el":372,"un":373,"'s":374,"ould":375,"my":376,"Ġli":377,"ch":378,"Ġwant":379,"Ġhapp":380,"ent":381,"Ġsh":382,"itt":383,"out":384,"her":385,"Ġnot":386,"Ġdo":387,"ome":388,"se":389,"Ġvery":390,"end":391,"ly":392,"all":393,"ound":394,"Ġwh":395,"Ġk":396,"ime":397,"ittle":398,"Ġtime":399,"al":400,"Ġne":401,"Ġlittle":402,"Ġis":403,"ht":404,"Ġthere":405,"ĠIt":406,"ĠA":407,"Ġbig":408,"Ġhappy":409,"Ġre":410,"Ġsm":411,"Ġbut":412,".\"":413,"ry":414,"Ġsaw":415,"Ġan":416,"ra":417,"riend":418,"Ġfriend":419,"Ġas":420,"ack":421,"ake":422,"One":423,"ide":424,"!\"":425,"'t":426,"ug":427,"ĠTim":428,"Ġloo":429,"Ġwere":430,"ter":431,"ved":432,"Ġlo":433,"ore":434,"Once":435,"ĠOne":436,"Ġse":437,"Ġtoo":438,"Ġbo":439,"Ġhim":440,"Ġgo":441,"Ġare":442,"ec":443,"ĠJ":444,"ill":445,"Ġwanted":446,"Ġj":447,"ard":448,"Ġthem":449,"irl":450,"Ġupon":451,"Ġtheir":452,"Ġat":453,"Ġgirl":454,"Ġout":455,"ĠBen":456,"ur":457,"Ġdid":458,"ind":459,"ĠTom":460,"ays":461,"fu":462,"Ġsp":463,"Ġsmil":464,"Ġhave":465,"Ġcould":466,"hen":467,"ain":468,"hed":469,"art":470,"Ġcan":471,"rom":472,"Ġwent":473,"Ġex":474,"ĠW":475,"ic":476,"Ġar":477,"lp":478,"?\"":479,"ood":480,"ĠBut":481,"ful":482,"Ġfriends":483,"Ġnam":484,"ight":485,"Ġkn":486,"hing":487,"Ġhelp":488,"Ġall":489,"You":490,"um":491,"ark":492,"one":493,"Ġback":494,"Ġfun":495,"Ġcl":496,"are":497,"Ġno":498,"Ġle":499,"ĠTimmy":500,"op":501,"Ġsc":502,"Ġnamed":503,"Ġal":504,"elt":505,"Ġsmiled":506,"oug":507,"Ġman":508,"Ġloved":509,"Ġtoy":510,"side":511,"Ġlike":512,"ick":513,"Ġasked":514,"Ġfelt":515,"Ġfe":516,"Ġme":517,"Ġsee":518,"Ġlooked":519,"Ġsome":520,"ame":521,"Ġro":522,"Ġaround":523,"omet":524,"Ġbr":525,"ure":526,"ice":527,"Ġbir":528,"get":529,"Ġboy":530,"Ġwould":531,"ong":532,"Ġstart":533,"ss":534,"Ġbird":535,"Ġfa":536,"Ġsomet":537,"way":538,"ĠMom":539,",\"":540,"Ġmake":541,"ĠYou":542,"ings":543,"Ġag":544,"ade":545,"Ġsays":546,"Ġwhat":547,"dd":548,"Ġwor":549,"Ã¢":550,"âĤ":551,"âĤ¬":552,"king":553,"own":554,"Ġran":555,"Ġaway":556,"gether":557,"Ġtre":558,"ie":559,"ared":560,"ag":561,"oud":562,"Ġcar":563,"Ġstarted":564,"Ġmade":565,"if":566,"Ġtogether":567,"ther":568,"Ġpark":569,"Ġco":570,"Ġsomething":571,"Ġsad":572,"Ġother":573,"ited":574,"Ġnew":575,"Ġfrom":576,"Ġput":577,"ell":578,"ook":579,"Ġhug":580,"Ġla":581,"Ġpr":582,"ach":583,"ble":584,"Ġagain":585,"ĠE":586,"Ġgood":587,"Ġexc":588,"Ġmu":589,"Ġhome":590,"ĠF":591,"ep":592,"Ġfl":593,"ried":594,"Ġwhen":595,"Ġwho":596,"hat":597,"est":598,"Ġch":599,"Ġfound":600,"Ġthen":601,"pped":602,"Ġdec":603,"as":604,"nn":605,"Ġget":606,"Ġwal":607,"Ġplaying":608,"ĠD":609,"qu":610,"Ġsw":611,"ought":612,"Ġliked":613,"uck":614,"Ġthings":615,"pl":616,"ally":617,"ous":618,"ĠSu":619,"ĠSam":620,"Ġgot":621,"ro":622,"Ġbl":623,"ara":624,"Ġyour":625,"Ġexcited":626,"Ġdog":627,"Ġcame":628,"ave":629,"ided":630,"ax":631,"Ġevery":632,"Ġdecided":633,"nna":634,"Ġscared":635,"Ġv":636,"ust":637,"Ġdown":638,"Ġcare":639,"ouse":640,"Ġone":641,"Ġfind":642,"ist":643,"ap":644,"Ġbec":645,"ny":646,"Ġthan":647,"Ġwill":648,"Ġfeel":649,"Ġmy":650,"Ġab":651,"Ġdad":652,"arn":653,"Ġlook":654,"our":655,"ĠMax":656,"Ġgr":657,"Ġgra":658,"ers":659,"ess":660,"Ġke":661,"Ġtoys":662,"Ġpo":663,"Ġdidn":664,"ways":665,"Ġtook":666,"fe":667,"Ġball":668,"nder":669,"Ġabout":670,"ĠSara":671,"Ġalways":672,"Ġmommy":673,"ĠAnna":674,"Ġlot":675,"ant":676,"bb":677,"Ġkne":678,"Ġbu":679,"ise":680,"Ġtree":681,"Ġoutside":682,"Ġthought":683,"Ġta":684,"Ġmore":685,"Ġlearn":686,"ened":687,"ite":688,"ret":689,"ĠSo":690,"Ġho":691,"Ġknow":692,"Ġpu":693,"Ġsor":694,"ched":695,"ged":696,"eci":697,"Ġint":698,"Ġcat":699,"Ġold":700,"ĠWhen":701,"Ġtake":702,"Ġlaug":703,"ia":704,"ive":705,"Ġknew":706,"Ġspeci":707,"Ġspecial":708,"Ġany":709,"Ġpe":710,"ĠHer":711,"Ġsorry":712,"dden":713,"fter":714,"au":715,"Ġhow":716,"ink":717,"Ġshow":718,"ma":719,"Ġrun":720,"ish":721,"Ġtr":722,"ddenly":723,"Ġsl":724,"Ġmuch":725,"Ġtw":726,"and":727,"Ġhand":728,"Ġor":729,"ĠJo":730,"Ġhouse":731,"ĠEvery":732,"Ġop":733,"Ġwater":734,"Ġmo":735,"ven":736,"Ġtried":737,"ĠJack":738,"Ġsk":739,"Ġsun":740,"Ġclo":741,"ank":742,"Ġinto":743,"Ġinside":744,"ate":745,"ĠWe":746,"ump":747,"Ġtold":748,"here":749,"Ġgave":750,"Ġeach":751,"ty":752,"Ġproud":753,"Ġeat":754,"Ġif":755,"Ġroom":756,"Ġheard":757,"Ġthis":758,"ace":759,"Ġover":760,"Ġen":761,"Ġqu":762,"Ġnever":763,"Ġpret":764,"Ġcouldn":765,"other":766,"dy":767,"ĠMia":768,"Ġplayed":769,"ak":770,"ause":771,"by":772,"Ġpick":773,"ion":774,"Ġhugged":775,"etter":776,"Ġgre":777,"ge":778,"ĠSuddenly":779,"Ġexpl":780,"Ġjust":781,"Ġcom":782,"Ġbox":783,"ĠThen":784,"Ġnice":785,"Ġneed":786,"Ġmany":787,"oth":788,"ue":789,"Ġwat":790,"ĠFrom":791,"Ġoff":792,"'m":793,"ĠAnd":794,"Ġbecause":795,"Ġstr":796,"ile":797,"gry":798,"Ġsmall":799,"ĠHis":800,"Ġfo":801,"ving":802,"iz":803,"Ġlong":804,"ine":805,"Ġsn":806,"sed":807,"imal":808,"Ġjo":809,"Ġanimal":810,"Ġbear":811,"urt":812,"Ġtry":813,"ort":814,"uc":815,"Ġlearned":816,"ough":817,"Ġlove":818,"Ġunt":819,"ĠC":820,"sel":821,"ild":822,"Ġkind":823,"Ġuntil":824,"Ġbetter":825,"ft":826,"Ġsay":827,"Ġflow":828,"Ġdon":829,"Ġim":830,"urn":831,"Ġcle":832,"ady":833,"Ġend":834,"Ġbest":835,"ves":836,"Ġcall":837,"Yes":838,"Ġte":839,"ars":840,"ream":841,"Ġcareful":842,"Ġfast":843,"urp":844,"aut":845,"Ġad":846,"vent":847,"ĠÃ¢":848,"arden":849,"Ġgarden":850,"Ġfi":851,"ies":852,"ber":853,"ase":854,"Ġcu":855,"Ġbeaut":856,"Ġloud":857,"Ġjump":858,"Ġbra":859,"Ġche":860,"Ġthanked":861,"Ġsky":862,"Ġlaughed":863,"em":864,"Ġeven":865,"pt":866,"Ġby":867,"Th":868,"Ġlist":869,"iny":870,"lly":871,"self":872,"wn":873,"Ġgl":874,"Ġhurt":875,"Ġcome":876,"Åĵ":877,"Ġhard":878,"Ġstill":879,"lew":880,"Ġbeauti":881,"Ġanimals":882,"Ġbeautiful":883,"Ġway":884,"Ġwo":885,"Ġfam":886,"Ġlots":887,"Ġunder":888,"Ġra":889,"Ġlet":890,"be":891,"hes":892,"ct":893,"sh":894,"Ġbad":895,"ect":896,"ning":897,"Ġboth":898,"Ġsafe":899,"It":900,"Ġstay":901,"ĠP":902,"ool":903,"kay":904,"Ġcol":905,"ock":906,"Ġbook":907,"ast":908,"ople":909,"Ġangry":910,"Ġrem":911,"Ġshould":912,"Ġimp":913,"No":914,"Ġlived":915,"ree":916,"ĠAs":917,"ished":918,"Ġtwo":919,"ress":920,"Ġits":921,"Ġbrave":922,"Ġred":923,"Ġwalked":924,"Ġpeople":925,"igh":926,"ane":927,"urpr":928,"Ġfamily":929,"ĠAfter":930,"Ġshare":931,"Ġsu":932,"ucy":933,"Ġstor":934,"Ġflew":935,"Ġsurpr":936,"Ġfin":937,"ob":938,"Ġsoon":939,"ĠLucy":940,"Ġdan":941,"ip":942,"Let":943,"Ġfly":944,"Ġcalled":945,"fore":946,"xt":947,"led":948,"Ġdoll":949,"dded":950,"Ġpic":951,"Ġclean":952,"Ġkept":953,"Ġfore":954,"Ġpretty":955,"ised":956,"ĠJoh":957,"Ġdoor":958,"Ġrock":959,"Ġgoing":960,"ĠDad":961,"Ġshiny":962,"Ġkeep":963,"Ġnoise":964,"Ġnow":965,"Ġcry":966,"ĠG":967,"Ġdra":968,"Ġwind":969,"so":970,"Ġreal":971,"ĠMommy":972,"Ġturn":973,"Ġopened":974,"ummy":975,"ary":976,"Ġbefore":977,"Ġide":978,"Ġalso":979,"Ġadvent":980,"âĤ¬â":981,"les":982,"Ġground":983,"age":984,"Ġsto":985,"Ġcon":986,"illy":987,"ied":988,"Ġey":989,"Ġhas":990,"Ġfr":991,"What":992,"Ġexplore":993,"Ġidea":994,"ĠSp":995,"Ġcolor":996,"Ġfar":997,"Ġnodded":998,"kes":999,"imb":1000,"Ġwar":1001,"Ġun":1002,"aybe":1003,"th":1004,"Ġclimb":1005,"Ġnext":1006,"Ġpicked":1007,"thing":1008,"ture":1009,"Ġma":1010,"Ġwhile":1011,"Ġsmile":1012,"oy":1013,"Ġfeeling":1014,"eet":1015,"Ħ¢":1016,"âĤ¬âĦ¢":1017,"Ġbed":1018,"Ġthr":1019,"Ġwalking":1020,"Ġtruck":1021,"Thank":1022,"ger":1023,"ĠJohn":1024,"Ġthink":1025,"ff":1026,"Ġwr":1027,"Ġadventure":1028,"ĠBob":1029,"Ġbeing":1030,"Ġgive":1031,"Ġfood":1032,"That":1033,"Ġpicture":1034,"Ġlisten":1035,"Ġtow":1036,"Ġdif":1037,"Ġbro":1038,"Ġtra":1039,"iced":1040,"Ġbre":1041,"Ġclos":1042,"ted":1043,"ac":1044,"Ġeyes":1045,"ious":1046,"joy":1047,"Ġwait":1048,"Ġafter":1049,"Ġown":1050,"ught":1051,"Ġstopped":1052,"ĠSpot":1053,"ĠN":1054,"Ġdel":1055,"Ġflowers":1056,"Ġlooking":1057,"ting":1058,"Ġshout":1059,"Ġrepl":1060,"Ġhead":1061,"ĠSue":1062,"Ġhands":1063,"ember":1064,"Ġwalk":1065,"ĠR":1066,"Ġblue":1067,"Ġfish":1068,"Ġvo":1069,"Lily":1070,"Ġgreat":1071,"Ġmean":1072,"Ġever":1073,"irst":1074,"Ġslide":1075,"ized":1076,"Ġimport":1077,"Ġnear":1078,"Ġask":1079,"Ġus":1080,"Ġenjoy":1081,"able":1082,"lease":1083,"Ġsound":1084,"Ġokay":1085,"oon":1086,"Ġforest":1087,"Ġdis":1088,"Ġnoticed":1089,"llow":1090,"Ġremember":1091,"bbit":1092,"Ġrain":1093,"Ġru":1094,"Ġapp":1095,"Ġquick":1096,"Ġtou":1097,"Ġde":1098,"Ġwatch":1099,"Ġimportant":1100,"We":1101,"Ġwonder":1102,"Ġstick":1103,"Ġshowed":1104,"Ġtal":1105,"Ġboat":1106,"Ġour":1107,"maz":1108,"Ġwork":1109,"Ġamaz":1110,"Ġreplied":1111,"bbed":1112,"Ġac":1113,"fere":1114,"Ġright":1115,"Ġdiffere":1116,"bye":1117,"Ġstrong":1118,"Ġfollow":1119,"Ġsqu":1120,"Ġdoes":1121,"Ġbright":1122,"Ġrabbit":1123,"Ġwhere":1124,"Ġeveryone":1125,"gan":1126,"Ġuse":1127,"day":1128,"co":1129,"Ġwatched":1130,"Look":1131,"Ġyell":1132,"Ġhop":1133,"ila":1134,"ath":1135,"Ġface":1136,"Ġmor":1137,"Ġam":1138,"ered":1139,"Ġdress":1140,"Ġquickly":1141,"Ġdifferent":1142,"ĠTh":1143,"Ġbeen":1144,"Ġvoice":1145,"Ġcuri":1146,"ĠSarah":1147,"Ġbecame":1148,"ange":1149,"Ġsure":1150,"Ġye":1151,"ng":1152,"aught":1153,"Ġplace":1154,"Ġcook":1155,"Ġstore":1156,"Ġchild":1157,"Ġhigh":1158,"Ġcake":1159,"Ġwarm":1160,"Ġgoodbye":1161,"Ġforg":1162,"ndma":1163,"Ġmag":1164,"Ġtell":1165,"Ġblock":1166,"leep":1167,"Ġcloser":1168,"more":1169,"Ġanymore":1170,"Ġcurious":1171,"itc":1172,"ĠJane":1173,"ass":1174,"Ġfav":1175,"ount":1176,"Ġnight":1177,"Ġbel":1178,"Ġpull":1179,"ey":1180,"imes":1181,"Ġopen":1182,"Ġhere":1183,"Ġfirst":1184,"unny":1185,"Ġz":1186,"Ġfell":1187,"iss":1188,"Can":1189,"ired":1190,"ached":1191,"Ġpain":1192,"Ġlea":1193,"orn":1194,"Ġsees":1195,"Ġkid":1196,"Ġsweet":1197,"Ġgrabbed":1198,"Ġbutter":1199,"Ġonly":1200,"ull":1201,"itchen":1202,"Ġkitchen":1203,"Ġthree":1204,"Ġsand":1205,"Ġflo":1206,"Ġstop":1207,"Ġbirds":1208,"ĠIn":1209,"Ġmon":1210,"Ġhelped":1211,"ĠThat":1212,"Ġbit":1213,"Ġfire":1214,"Mom":1215,"Ġjumped":1216,"Ġglad":1217,"Ġcont":1218,"ĠDo":1219,"Ġba":1220,"ĠEveryone":1221,"Ġhappened":1222,"isy":1223,"Ġcra":1224,"Ġdr":1225,"Ġtri":1226,"ĠLila":1227,"Ġcr":1228,"Ġsing":1229,"Ġgrass":1230,"Ġshouted":1231,"Ġbrother":1232,"ĠLet":1233,"Ġbeh":1234,"ppy":1235,"ins":1236,"Ġmess":1237,"Ġlady":1238,"Ġper":1239,"Ġstory":1240,"akes":1241,"air":1242,"Ġrealized":1243,"nts":1244,"Ġreached":1245,"Ġhat":1246,"Ġyummy":1247,"Ġsoft":1248,"'re":1249,"Ġpretend":1250,"Ġate":1251,"Ġhaving":1252,"Ġunderst":1253,"Ġdraw":1254,"Ġfavor":1255,"Ġgame":1256,"Ġpap":1257,"Ġfavorite":1258,"Ġless":1259,"ĠCan":1260,"Ġprin":1261,"Ġrest":1262,"Ġlooks":1263,"Ġcre":1264,"zy":1265,"ater":1266,"Ġbunny":1267,"Ġready":1268,"Ġthing":1269,"ken":1270,"Ġthrough":1271,"Ġmaking":1272,"Ġpare":1273,"where":1274,"Ġduck":1275,"Ġcars":1276,"ĠJoe":1277,"Ġmagic":1278,"Ġcut":1279,"Ġreally":1280,"ather":1281,"Ġmum":1282,"Wow":1283,"Ġkids":1284,"Ġtouch":1285,"Ġtired":1286,"Ġhimself":1287,"Ġfix":1288,"Ġpond":1289,"Ġworld":1290,"Ġdone":1291,"Ġprom":1292,"Ġcoming":1293,"Ġworry":1294,"Ġcried":1295,"Ġbegan":1296,"Ġcatch":1297,"Ġwaved":1298,"Tom":1299,"bo":1300,"Ġblocks":1301,"Ġwhy":1302,"Ġbutterf":1303,"Ġfunny":1304,"fully":1305,"Ġhold":1306,"Ġname":1307,"Ġhair":1308,"Ġpart":1309,"Ġste":1310,"Ġanother":1311,"Ġfro":1312,"Ġflower":1313,"ster":1314,"Ġused":1315,"oney":1316,"eddy":1317,"rel":1318,"ign":1319,"Ġfill":1320,"ĠTommy":1321,"Ġtast":1322,"Ġgreen":1323,"ĠFin":1324,"Ġcool":1325,"Ġseen":1326,"Ġlikes":1327,"ient":1328,"Ġtop":1329,"iver":1330,"Ġmouse":1331,"Ġwished":1332,"Ġdelic":1333,"Ġthank":1334,"Ġparents":1335,"Ġlight":1336,"Ġfloor":1337,"Ġswim":1338,"Ġdoing":1339,"Ġpaper":1340,"olly":1341,"Ġgi":1342,"hy":1343,"Don":1344,"mer":1345,"Ġbag":1346,"Ġlesson":1347,"Ġdri":1348,"aisy":1349,"ation":1350,"ards":1351,"Ġsurprise":1352,"uff":1353,"Ġbehind":1354,"Ġsmell":1355,"Ġwindow":1356,"ĠSally":1357,"Ġbow":1358,"Ġhopped":1359,"Ġread":1360,"Ġdro":1361,"Ġsleep":1362,"\".":1363,"Ġhole":1364,"Ġdin":1365,"Ġyellow":1366,"Ġdark":1367,"ike":1368,"Ġrunning":1369,"Ġtrees":1370,"Ġworked":1371,"andy":1372,"Ġsho":1373,"Ġwood":1374,"Ġlaugh":1375,"ren":1376,"Ġspot":1377,"Ġfull":1378,"Ġsat":1379,"Ġswing":1380,"ued":1381,"ely":1382,"us":1383,"ĠBenny":1384,"rew":1385,"Ġice":1386,"Ġcold":1387,"Ġhappily":1388,"Ġhear":1389,"ul":1390,"Ġwear":1391,"Ġlost":1392,"Hell":1393,"Hello":1394,"Ġsurprised":1395,"Ġremembered":1396,"Ġ-":1397,"Ġset":1398,"Ġslow":1399,"Ġyears":1400,"Ġbutterfly":1401,"Ġfrog":1402,"Ġbuy":1403,"Ġheld":1404,"Ġneeded":1405,"ons":1406,"Ġwrong":1407,"Ġcarefully":1408,"Ġanything":1409,"ĠAt":1410,"Ġmove":1411,"ĠDaisy":1412,"Ġleft":1413,"Ġsnow":1414,"ens":1415,"ĠEm":1416,"Ġhun":1417,"Ġtable":1418,"Ġtall":1419,"Ġfair":1420,"Ġdream":1421,"Ġfollowed":1422,"Ġdir":1423,"ĠNow":1424,"Ġbooks":1425,"Ġel":1426,"Ġbus":1427,"ĠK":1428,"reed":1429,"Ġhot":1430,"Ġperf":1431,"Ġchildren":1432,"Ġair":1433,"Ġplease":1434,"Ġenjoyed":1435,"cess":1436,"Ġhill":1437,"ds":1438,"Ġunderstand":1439,"Ġfinished":1440,"Ġbug":1441,"Ġfriendly":1442,"Ġarri":1443,"Ġhid":1444,"sp":1445,"Ġherself":1446,"Ġcast":1447,"ĠFinally":1448,"Ġclose":1449,"ined":1450,"Ġmight":1451,"ĠTo":1452,"ross":1453,"Ġcontin":1454,"Ġforgot":1455,"Ġelse":1456,"Ġarm":1457,"Ġbroken":1458,"Ġdelicious":1459,"Ġcolors":1460,"lf":1461,"ĠGra":1462,"ĠBilly":1463,"Ġbuild":1464,"Ġwants":1465,"Ġgent":1466,"Ġrel":1467,"OK":1468,"ield":1469,"Ġmat":1470,"Ġsong":1471,"asure":1472,"Ġgone":1473,"av":1474,"Ġarrived":1475,"Ġbaby":1476,"Ġsquir":1477,"Ġtight":1478,"ĠJim":1479,"Ġwall":1480,"ner":1481,"ĠJen":1482,"Ġable":1483,"ĠThere":1484,"Ġwonderful":1485,"room":1486,"Ġsomeone":1487,"Ġleaves":1488,"Ġcreat":1489,"ĠThis":1490,"Ġgu":1491,"Ġyes":1492,"Ġpat":1493,"Ġsquirrel":1494,"Ġfilled":1495,"ask":1496,"Ġcount":1497,"Ġagreed":1498,"ich":1499,"ee":1500,"ĠMaybe":1501,"Ġcontinued":1502,"ĠAmy":1503,"Ġbreak":1504,"Ġcookies":1505,"Ġpink":1506,"Ġlion":1507,"'ll":1508,"Ġpoin":1509,"Ġgrandma":1510,"Ġvis":1511,"shed":1512,"Ġfall":1513,"ash":1514,"Ġscary":1515,"ries":1516,"Ġenough":1517,"Ġfight":1518,"Ġmakes":1519,"Ġhungry":1520,"Ġmoment":1521,"Ġsmiles":1522,"Ġsometimes":1523,"Ġju":1524,"Ġpi":1525,"ĠMolly":1526,"Ġgetting":1527,"Ġstayed":1528,"ance":1529,"Ġwet":1530,"icy":1531,"Ġturned":1532,"row":1533,"Ġmorning":1534,"Ġfinally":1535,"Ġcream":1536,"app":1537,"ĠWhat":1538,"Ġcastle":1539,"ama":1540,"Ġcomp":1541,"Ġothers":1542,"Ġlistened":1543,"Ġpictures":1544,"Ġclimbed":1545,"Ġtrying":1546,"Ġdinner":1547,"Ġbeach":1548,"Ġtalk":1549,"Ġmet":1550,"gon":1551,"Ġtail":1552,"oom":1553,"oup":1554,"man":1555,"Ġclot":1556,"apped":1557,"rot":1558,"ere":1559,"Ġballoon":1560,"ced":1561,"Ġfew":1562,"Ġclothes":1563,"Ġamazing":1564,"Ġmother":1565,"Ġasks":1566,"uffy":1567,"Ġmus":1568,"key":1569,"lc":1570,"red":1571,"Ġfur":1572,"Ġpuppy":1573,"Ġwhite":1574,"ence":1575,"ctor":1576,"Ġsail":1577,"oring":1578,"Ġpet":1579,"Ġperfect":1580,"Ġmar":1581,"Ġalone":1582,"Ġdaddy":1583,"Oh":1584,"The":1585,"Ġspl":1586,"ister":1587,"Ġsit":1588,"ucky":1589,"Ġpol":1590,"Ġwasn":1591,"Ġbrought":1592,"wl":1593,"Ġgrow":1594,"der":1595,"Ġeverything":1596,"Ġpulled":1597,"Ġwaited":1598,"amp":1599,"ott":1600,"Ġpie":1601,"But":1602,"Ġdanger":1603,"Ġwoods":1604,"ated":1605,"Ġstrange":1606,"Ġsear":1607,"Ġjoy":1608,"This":1609,"Ġride":1610,"Ġwon":1611,"Ġdeep":1612,"ower":1613,"Ġplan":1614,"Ġspark":1615,"Ġroll":1616,"Ġvisit":1617,"ĠJill":1618,"Ġruns":1619,"Ġhide":1620,"Ġfox":1621,"Ġthinks":1622,"Ġleave":1623,"eter":1624,"zz":1625,"Ġteddy":1626,"Maybe":1627,"me":1628,"os":1629,"Ġliving":1630,"Ġamazed":1631,"Ġsilly":1632,"Ġmusic":1633,"gs":1634,"Ġcloud":1635,"Ġtowards":1636,"Ġtreat":1637,"ape":1638,"Okay":1639,"ever":1640,"Ġshar":1641,"ĠSoon":1642,"Ġowner":1643,"Ġpen":1644,"ang":1645,"med":1646,"Ġflying":1647,"ises":1648,"Ġpre":1649,"ugg":1650,"ames":1651,"Ġshared":1652,"thy":1653,"Ġland":1654,"Ġqui":1655,"Ġpromised":1656,"ĠAll":1657,"Ġrace":1658,"Ġmoney":1659,"ained":1660,"ope":1661,"igg":1662,"Ġfield":1663,"Ġsister":1664,"Ġjob":1665,"Ġpaint":1666,"Ġbroke":1667,"ĠFl":1668,"Ġmoral":1669,"avy":1670,"cket":1671,"Ġfaster":1672,"Ġparty":1673,"cle":1674,"eces":1675,"Ġgrate":1676,"Ġside":1677,"Ġquiet":1678,"Ġlake":1679,"unch":1680,"Ġpieces":1681,"Ġbran":1682,"Ġbott":1683,"Ġbelie":1684,"ix":1685,"Ġworried":1686,"orm":1687,"Ġmust":1688,"Ġgrateful":1689,"sw":1690,"uit":1691,"Ġcandy":1692,"Ġreach":1693,"Ġansw":1694,"Ġcolorful":1695,"Ġgif":1696,"Ġdance":1697,"ĠMr":1698,"ze":1699,"Ġtrain":1700,"Ġele":1701,"Ġbike":1702,"Ġtreasure":1703,"Ġblank":1704,"Ġcup":1705,"ĠDaddy":1706,"Ġwelc":1707,"Ġcho":1708,"ol":1709,"Ġbigger":1710,"outh":1711,"Ġve":1712,"Ġslowly":1713,"Ġdolls":1714,"Ġscream":1715,"ually":1716,"ling":1717,"ased":1718,"Ġmouth":1719,"Ġblack":1720,"Ġblanket":1721,"ph":1722,"Ġsmart":1723,"Mommy":1724,"Ġsnack":1725,"Ġriver":1726,"Ġbar":1727,"Ġpro":1728,"Ġsuch":1729,"fort":1730,"Ġdangerous":1731,"Ġstu":1732,"ire":1733,"Ġnap":1734,"less":1735,"Ġeverywhere":1736,"Ġem":1737,"cked":1738,"Ġplant":1739,"ĠJust":1740,"Ġwin":1741,"Ġtower":1742,"Ġpot":1743,"Ġmonster":1744,"Ġtwins":1745,"Ġprincess":1746,"Ġhelping":1747,"Sure":1748,"Ġthrew":1749,"Ġdirty":1750,"Ġmagical":1751,"Ġjoin":1752,"Ġmonkey":1753,"Ġsign":1754,"Ġje":1755,"ear":1756,"Ġcrying":1757,"Ġpa":1758,"Ġdoctor":1759,"ipped":1760,"set":1761,"Ġbowl":1762,"ĠMary":1763,"Ġheavy":1764,"Ġbee":1765,"Ġbite":1766,"Ġwords":1767,"Ġhoped":1768,"Ġcarrot":1769,"Hi":1770,"de":1771,"ored":1772,"ming":1773,"Ġfruit":1774,"Ġdragon":1775,"Why":1776,"Ġmost":1777,"Ġspr":1778,"ident":1779,"bble":1780,"Ġsame":1781,"Ġacc":1782,"ĠMama":1783,"Ġacross":1784,"Ġfarmer":1785,"Ġheal":1786,"Ġdisapp":1787,"Ben":1788,"Ġclosed":1789,"Ġfeels":1790,"Ġpass":1791,"Ġbath":1792,"Ġstuck":1793,"Ġbuck":1794,"Ġhig":1795,"Ġstepped":1796,"eared":1797,"Ġcray":1798,"Ġteac":1799,"Ġcoll":1800,"Ġbutt":1801,"Ġheart":1802,"chool":1803,"Ġtown":1804,"Ġstre":1805,"ĠGrandma":1806,"Ġwouldn":1807,"Ġcour":1808,"Ġmix":1809,"Ġatt":1810,"Ġbrown":1811,"asket":1812,"Ġbasket":1813,"Ġbelieve":1814,"Ġchair":1815,"Ġpushed":1816,"Ġeating":1817,"Ġschool":1818,"issed":1819,"iting":1820,"Anna":1821,"Ġcourse":1822,"ord":1823,"Ġyard":1824,"Ġhit":1825,"Ġwithout":1826,"Ġpack":1827,"ts":1828,"Ġstar":1829,"ĠEmma":1830,"Ġswings":1831,"Ġclapped":1832,"Ġgentle":1833,"Ġfairy":1834,"Ġwelcome":1835,"orrow":1836,"Ġteacher":1837,"Ġpers":1838,"Ġmin":1839,"Ġsmo":1840,"ier":1841,"Ġtoday":1842,"Ġsec":1843,"Ġhigher":1844,"Ġnoises":1845,"Ġneigh":1846,"Ġdrove":1847,"Ġneck":1848,"Ġaccident":1849,"Ġturns":1850,"Ġben":1851,"ĠTheir":1852,"Ġstand":1853,"Ġsuddenly":1854,"pping":1855,"umb":1856,"ĠInside":1857,"Ġpiece":1858,"Ġgames":1859,"Ġneighb":1860,"Ġpocket":1861,"ors":1862,"Ġthrow":1863,"Ġfree":1864,"Ġforget":1865,"br":1866,"ourn":1867,"ventually":1868,"Ġhugs":1869,"Ġjourn":1870,"ho":1871,"ĠFluffy":1872,"Ġdry":1873,"vel":1874,"Ġlon":1875,"ract":1876,"Ġwings":1877,"Ġcheered":1878,"ead":1879,"Ġhappen":1880,"Ġfence":1881,"Ġwish":1882,"Ġlonely":1883,"Ġlonger":1884,"Ġexplained":1885,"itting":1886,"phant":1887,"Ġlate":1888,"Ġsang":1889,"Ġinst":1890,"Ġalong":1891,"ible":1892,"Ġwell":1893,"Ġsea":1894,"Ġshoes":1895,"Ġlunch":1896,"cy":1897,"Ġstories":1898,"ches":1899,"Ġcorn":1900,"Ġupset":1901,"Ġtrou":1902,"ĠO":1903,"oun":1904,"Ġshook":1905,"Ġmiss":1906,"Ġcaught":1907,"Ġstars":1908,"Ġelephant":1909,"Ġadventures":1910,"Ġsecret":1911,"Ġshap":1912,"Ġmine":1913,"Ġyoung":1914,"ĠJimmy":1915,"ocked":1916,"Ġsoup":1917,"Ġpurp":1918,"Ġmoved":1919,"Ġsinging":1920,"Ġbelong":1921,"Ġtom":1922,"Ġrocks":1923,"Ġwhe":1924,"ment":1925,"ĠOn":1926,"Ġph":1927,"Ġdist":1928,"ĠThank":1929,"Ġdropped":1930,"Ġbucket":1931,"ces":1932,"Ġplac":1933,"Ġjar":1934,"aughty":1935,"ountain":1936,"bby":1937,"ek":1938,"Ġnaughty":1939,"Ġbat":1940,"Ġpast":1941,"Ġowl":1942,"ĠMum":1943,"Ġswam":1944,"ĠTw":1945,"Ġbring":1946,"Ġdrink":1947,"Do":1948,"Ġtaking":1949,"Ġapple":1950,"yard":1951,"Ġtakes":1952,"Ġresp":1953,"llo":1954,"Ġbackyard":1955,"fused":1956,"Ġpurple":1957,"Ġwise":1958,"Ġshapes":1959,"Ġstreet":1960,"ĠSammy":1961,"Ġorange":1962,"Ġes":1963,"Ġcomes":1964,"bow":1965,"Ġsounds":1966,"ward":1967,"Ġexp":1968,"Ġkey":1969,"Ġnose":1970,"Ġnearby":1971,"ail":1972,"Ġbench":1973,"Ġfarm":1974,"Ġexploring":1975,"Ġshop":1976,"Ġjuice":1977,"ĠLater":1978,"col":1979,"Ġmad":1980,"Ġcou":1981,"Ġnothing":1982,"Ġaf":1983,"cks":1984,"ese":1985,"sy":1986,"Ġinv":1987,"Ġbusy":1988,"Ġsick":1989,"ung":1990,"Sara":1991,"Ġseemed":1992,"Ġpig":1993,"Ġwoke":1994,"Ġwondered":1995,"Ġmail":1996,"Ġrelie":1997,"Ġcow":1998,"aughter":1999,"adow":2000,"ions":2001,"Ġyear":2002,"Ġthough":2003,"Ġholding":2004,"Ġarms":2005,"cing":2006,"fish":2007,"Ġsitting":2008,"Ġdes":2009,"Ġbranch":2010,"Ġnest":2011,"Ġmark":2012,"Ġtiny":2013,"pper":2014,"Ġdriver":2015,"thday":2016,"ittens":2017,"Ġ3":2018,"Ġmil":2019,"ity":2020,"raid":2021,"ining":2022,"ose":2023,"Ġrainbow":2024,"Ġafraid":2025,"Ġob":2026,"Ġcir":2027,"ĠCome":2028,"Ġfit":2029,"Ġlift":2030,"read":2031,"Tim":2032,"Ġround":2033,"Ġboun":2034,"ale":2035,"Ġgift":2036,"Ġspoon":2037,"Ġcoat":2038,"Ġcarry":2039,"Ġpatient":2040,"Ġdaughter":2041,"Ġcute":2042,"Ġking":2043,"idge":2044,"to":2045,"Ġtouched":2046,"Ġpromise":2047,"Ġhello":2048,"Ġforever":2049,"Ġbread":2050,"Of":2051,"eth":2052,"ĠWh":2053,"ĠTweet":2054,"Ġband":2055,"Ġletter":2056,"vered":2057,"Ġkite":2058,"Ġpeace":2059,"ĠWith":2060,"Ġcheese":2061,"Ġwhist":2062,"Ġhuge":2063,"ĠEll":2064,"Ġgrab":2065,"Ġrelieved":2066,"let":2067,"Hey":2068,"Ġbirthday":2069,"board":2070,"Ġfing":2071,"Ġpower":2072,"Ġgives":2073,"sting":2074,"Ġshell":2075,"ours":2076,"Ġwra":2077,"og":2078,"Ġhope":2079,"cer":2080,"Ġputs":2081,"Ġswimming":2082,"Ġgigg":2083,"gg":2084,"Ġact":2085,"Ġmilk":2086,"Ġbottle":2087,"Ġkick":2088,"ĠAl":2089,"Ġintere":2090,"Ġjourney":2091,"Ġaccidentally":2092,"shine":2093,"Ġmist":2094,"Ġexciting":2095,"itch":2096,"Ġlife":2097,"Ġonto":2098,"Ġcozy":2099,"gged":2100,"Ġsunny":2101,"Ġbush":2102,"Ġret":2103,"Ġcreature":2104,"Ġinstead":2105,"unt":2106,"alm":2107,"Ġdays":2108,"Ġcomfort":2109,"Ġpointed":2110,"Ġear":2111,"Ġlucky":2112,"sc":2113,"Ġlaughing":2114,"Ġspin":2115,"ped":2116,"Ġroad":2117,"Ġlater":2118,"Ġimag":2119,"Ġsunshine":2120,"Ġhoney":2121,"Ġcollect":2122,"ness":2123,"Ġsharp":2124,"Ġwom":2125,"Ġwoman":2126,"Ġreturn":2127,"Ġdisco":2128,"Ġpudd":2129,"ten":2130,"Ġeas":2131,"Ġfan":2132,"Ġwatching":2133,"Ġinc":2134,"ub":2135,"Ġspo":2136,"Ġanyone":2137,"Ġsandw":2138,"Ġcave":2139,"els":2140,"Ġducks":2141,"Ġtalked":2142,"Ġsmiling":2143,"ize":2144,"ball":2145,"Good":2146,"Ġbought":2147,"Ġpop":2148,"Ġsuc":2149,"Ġloves":2150,"Ġhor":2151,"ĠJenny":2152,"Ġbutton":2153,"blem":2154,"Ġproblem":2155,"Ġhealthy":2156,"Ġsearched":2157,"Ġgather":2158,"Ġcrayons":2159,"ĠCh":2160,"Ġperson":2161,"Ġkiss":2162,"Ġtrouble":2163,"ndp":2164,"Ġent":2165,"Ġmeet":2166,"round":2167,"Ġtasty":2168,"Ġapples":2169,"ĠMittens":2170,"Ġsmelled":2171,"ĠSomet":2172,"ĠEmily":2173,"Ġstorm":2174,"Ġpile":2175,"Ġsnowman":2176,"Ġmach":2177,"ĠRe":2178,"itten":2179,"Ġce":2180,"Ġspid":2181,"Ġclouds":2182,"Ġrope":2183,"Ġzoom":2184,"Ġplane":2185,"Ġrespect":2186,"ĠHow":2187,"irt":2188,"amed":2189,"Ġinteresting":2190,"Ġclever":2191,"Ġshining":2192,"Ġzoo":2193,"Ġpar":2194,"Ġmatter":2195,"Ġwide":2196,"ove":2197,"owed":2198,"Ġscreamed":2199,"Ġmud":2200,"ont":2201,"Ġpres":2202,"Ġadm":2203,"Ġsnake":2204,"Ġpuzz":2205,"Ġgoes":2206,"aur":2207,"epend":2208,"Ġbark":2209,"Ġhon":2210,"Ġpract":2211,"Ġeag":2212,"Ġorgan":2213,"Ġfront":2214,"Ġprot":2215,"Ġfeather":2216,"eb":2217,"Ġcard":2218,"Ġasleep":2219,"Ġpill":2220,"Ġpath":2221,"Ġsur":2222,"Ġap":2223,"erly":2224,"ÅĵI":2225,"Ġprotect":2226,"Ġsaf":2227,"Come":2228,"Ġquest":2229,"een":2230,"Ġtries":2231,"ndpa":2232,"Ġseat":2233,"Ġanswer":2234,"oose":2235,"Ġspotted":2236,"Ġteach":2237,"Ġlovely":2238,"ĠAnn":2239,"Ġvill":2240,"Ġtrip":2241,"Ġdanced":2242,"Ġhorse":2243,"Ġneighbor":2244,"Ġforgive":2245,"Ġpresent":2246,"Ġgently":2247,"Ġval":2248,"Ġwild":2249,"Ġteeth":2250,"Ġshr":2251,"up":2252,"ert":2253,"Ġmed":2254,"Ġplaces":2255,"ĠSt":2256,"ĠLe":2257,"ĠGo":2258,"Ġwearing":2259,"Ġappeared":2260,"Ġslid":2261,"Ġphone":2262,"Ġminut":2263,"Ġcheer":2264,"Ġwhich":2265,"Ġwhole":2266,"isa":2267,"Ġmind":2268,"Ġmyster":2269,"Ġthin":2270,"Ġrude":2271,"Ġgiant":2272,"Ġdirt":2273,"Ġdi":2274,"ular":2275,"Ġworm":2276,"ĠTogether":2277,"ching":2278,"Ġlive":2279,"Ġrolled":2280,"Ġfaces":2281,"Ġconfused":2282,"izz":2283,"ĠJake":2284,"Ġpretended":2285,"Ġtasted":2286,"Ġser":2287,"Ġsack":2288,"Ġcouch":2289,"Ġimpress":2290,"Ġring":2291,"Ġash":2292,"Ġpour":2293,"Ġcalm":2294,"ssed":2295,"Ġcookie":2296,"cean":2297,"itty":2298,"Ġsplas":2299,"Ġdrive":2300,"Ġocean":2301,"Ġchocol":2302,"nic":2303,"Ġban":2304,"Ġmachine":2305,"Ġlad":2306,"Ġca":2307,"Ġspent":2308,"Ġcorner":2309,"Ġpicnic":2310,"ones":2311,"Ġsal":2312,"Ġsupp":2313,"Ġwave":2314,"ĠBe":2315,"Ġtun":2316,"Ġcoin":2317,"Ġspider":2318,"Jo":2319,"Ġchick":2320,"ator":2321,"Ġoven":2322,"Ġpan":2323,"Ġscar":2324,"Ġtomorrow":2325,"Ġfeet":2326,"Ġpush":2327,"Ġbugs":2328,"ĠSometimes":2329,"Ġfurry":2330,"Ġneckl":2331,"Ġwip":2332,"unk":2333,"Ġrec":2334,"Ġlay":2335,"Ġemb":2336,"ato":2337,"ĠLisa":2338,"Ġknee":2339,"Ġfighting":2340,"la":2341,"Ġign":2342,"umber":2343,"Ġlast":2344,"Ġhiding":2345,"Ġladder":2346,"Ġbuilding":2347,"Ġremind":2348,"als":2349,"Ġsmooth":2350,"Ġbubble":2351,"Ġchocolate":2352,"Ġhelpful":2353,"Ġbell":2354,"Ġblew":2355,"Ġrob":2356,"Ġfinish":2357,"Ġcann":2358,"Ġsel":2359,"Ġpool":2360,"ĠBu":2361,"Ġtid":2362,"Ġwrite":2363,"Ġtalking":2364,"Ġdelight":2365,"Ġcannot":2366,"Ġchased":2367,"arge":2368,"Ġmountain":2369,"Ġfold":2370,"arra":2371,"Ġcart":2372,"Ġsongs":2373,"Ġtool":2374,"ighed":2375,"Ġnet":2376,"Ġleaf":2377,"Ġstret":2378,"Ġspread":2379,"Ġembarra":2380,"Ġfoot":2381,"St":2382,"Ġrep":2383,"mo":2384,"ife":2385,"Ġwaiting":2386,"Ġmaybe":2387,"Ġeventually":2388,"Ġpuddle":2389,"Ġpaw":2390,"Ġbanan":2391,"Ġshy":2392,"per":2393,"Ġbarked":2394,"Ġselfish":2395,"Ġwore":2396,"ĠPeter":2397,"Ġrobot":2398,"Ġtaste":2399,"ĠPlease":2400,"Ġant":2401,"Ġnecklace":2402,"Ġwash":2403,"Ġfixed":2404,"Ġwhenever":2405,"Ġstra":2406,"Ġstring":2407,"Ġcross":2408,"Ġcloth":2409,"Ġsol":2410,"Ġcoo":2411,"My":2412,"lex":2413,"box":2414,"umpy":2415,"Ġstep":2416,"Please":2417,"Ġhum":2418,"Ġshelf":2419,"ult":2420,"Ġtreats":2421,"Ġpeaceful":2422,"Ġtidy":2423,"Ġlarge":2424,"ĠSome":2425,"Ġhears":2426,"Ġplate":2427,"orry":2428,"Ġstir":2429,"Ġstone":2430,"ĠWhile":2431,"Ġmissed":2432,"Ġ'":2433,"Ġgen":2434,"ĠTeddy":2435,"Ġvillage":2436,"Ġcrab":2437,"urse":2438,"ĠEverywhere":2439,"Ġspe":2440,"Ġcreative":2441,"Ġspray":2442,"Ġwhistle":2443,"Ġknocked":2444,"Ġsticks":2445,"airs":2446,"iger":2447,"ĠTV":2448,"elly":2449,"oph":2450,"old":2451,"Ġcarrots":2452,"Ġcolour":2453,"lebr":2454,"Ġdecor":2455,"ĠZ":2456,"ungle":2457,"Ġtrust":2458,"Ġtells":2459,"Ġcelebr":2460,"ush":2461,"Ġembarrassed":2462,"Ġsharing":2463,"Ġwhis":2464,"Ġjungle":2465,"getable":2466,"arm":2467,"Ġmoon":2468,"Ġvegetable":2469,"Ġforward":2470,"Ġhel":2471,"pty":2472,"Ġempty":2473,"Ġlegs":2474,"Ġnods":2475,"Ġjumping":2476,"Ġlanded":2477,"oin":2478,"Ġtea":2479,"ĠDon":2480,"ĠRex":2481,"nny":2482,"ird":2483,"Ġple":2484,"Ġgray":2485,"Ġsplash":2486,"ets":2487,"most":2488,"Ġnut":2489,"ĠWhy":2490,"Ġbal":2491,"Ġashamed":2492,"Ġtightly":2493,"Ġshirt":2494,"Ġsour":2495,"ĠSus":2496,"Ġgrew":2497,"Ġalmost":2498,"Ġsave":2499,"Ġdisappoin":2500,"Sam":2501,"Ġmeant":2502,"Ġspicy":2503,"dge":2504,"Joh":2505,"Ġgener":2506,"ĠLeo":2507,"Stop":2508,"ano":2509,"Ġdeter":2510,"Ġpillow":2511,"Ġpolice":2512,"ital":2513,"ying":2514,"Ġthese":2515,"ned":2516,"Ġhonest":2517,"aking":2518,"Ġgun":2519,"Ġunderstood":2520,"ian":2521,"Ġdeterm":2522,"Ġhosp":2523,"Ġjew":2524,"Ġhospital":2525,"Ġsheep":2526,"Ġbreath":2527,"ground":2528,"Ġmeadow":2529,"Ġyelled":2530,"Ġbored":2531,"aring":2532,"erp":2533,"ĠEven":2534,"Ġseek":2535,"ĠLittle":2536,"dle":2537,"Ġcarried":2538,"Ġgas":2539,"Ġsnacks":2540,"Ġstood":2541,"Ġpizz":2542,"Ġber":2543,"Ġpuzzle":2544,"ork":2545,"Ġsuccess":2546,"Ġseed":2547,"Ġdrew":2548,"ĠAlice":2549,"Ġdisappointed":2550,"den":2551,"Ġline":2552,"Ġgold":2553,"vous":2554,"Ġkitten":2555,"Ġlem":2556,"ĠMummy":2557,"Ġshore":2558,"ĠJohnny":2559,"Ġfear":2560,"Ġvan":2561,"obby":2562,"Ġglass":2563,"Ġscarf":2564,"aul":2565,"Ġfeed":2566,"ustr":2567,"kin":2568,"Ġsleepy":2569,"Ġpowerful":2570,"hin":2571,"Ġsighed":2572,"Ġhours":2573,"Ġburn":2574,"Ġeasy":2575,"Ġcries":2576,"Ġpizza":2577,"Ġgenerous":2578,"Ġmessy":2579,"ony":2580,"Ġav":2581,"Ġwaves":2582,"Where":2583,"arl":2584,"gly":2585,"Ġkissed":2586,"iff":2587,"Ġpay":2588,"Ġsparkly":2589,"Ġprince":2590,"Ġship":2591,"Ġsold":2592,"Ġtest":2593,"ĠBl":2594,"Ġpri":2595,"Ġhidden":2596,"ĠBr":2597,"Ġugly":2598,"Ġblow":2599,"Sorry":2600,"Ġvase":2601,"Ġgroup":2602,"itter":2603,"Ġstanding":2604,"fl":2605,"Ġsandwich":2606,"Ġclass":2607,"Ġfrustr":2608,"Ġjelly":2609,"Ġpoor":2610,"Ġcloset":2611,"Ġmot":2612,"Ġreturned":2613,"Ġplants":2614,"ĠMark":2615,"ina":2616,"Ġbedroom":2617,"Ġpin":2618,"Ġknowing":2619,"Ġner":2620,"Ġcirc":2621,"Ġcrown":2622,"John":2623,"Ġchew":2624,"Are":2625,"body":2626,"Ġcaterp":2627,"Ġcaterpill":2628,"Ġyourself":2629,"Ġtaught":2630,"work":2631,"Ġtears":2632,"ote":2633,"Ġfinger":2634,"Ġrad":2635,"Ġspoil":2636,"Ġnervous":2637,"pack":2638,"Ġpir":2639,"Ġpolite":2640,"Ġfig":2641,"Ġthankful":2642,"Ġbridge":2643,"Ġleg":2644,"Ġesc":2645,"oop":2646,"Ġminutes":2647,"Ġboring":2648,"Ġtick":2649,"Ġhur":2650,"Ġfancy":2651,"Ġgrumpy":2652,"mb":2653,"oof":2654,"Ġtwirl":2655,"Ġgate":2656,"'d":2657,"Ġdrop":2658,"Ġtent":2659,"af":2660,"Ġfrustrated":2661,"Ġhang":2662,"Ġlock":2663,"era":2664,"Ġgets":2665,"Ġwolf":2666,"Ġpassed":2667,"Ġflag":2668,"Ġmysterious":2669,"Ġscr":2670,"Ġreg":2671,"ensive":2672,"Ġcaterpillar":2673,"Ġclown":2674,"Ġwis":2675,"Ġdetermined":2676,"selves":2677,"Ġdeer":2678,"Ġexpensive":2679,"Ġpicks":2680,"Ġdancing":2681,"Ġoften":2682,"Ġwagged":2683,"Ġexcite":2684,"Ġfil":2685,"illed":2686,"Ġboss":2687,"issors":2688,"Ġrocket":2689,"iddle":2690,"osaur":2691,"Ġgathered":2692,"ual":2693,"light":2694,"Ġchest":2695,"ĠOK":2696,"Ġscissors":2697,"Ġpus":2698,"Ġsaved":2699,"ates":2700,"izzy":2701,"Ġcand":2702,"sist":2703,"Ġanswered":2704,"Ġfruits":2705,"Ġpress":2706,"Ġmir":2707,"ĠNo":2708,"Ġtrue":2709,"Ġmistake":2710,"uce":2711,"Ġdogs":2712,"Ġbone":2713,"Ġdinosaur":2714,"Ġworking":2715,"Who":2716,"Ġlit":2717,"Ġhopping":2718,"Ġvegetables":2719,"Ġgiggled":2720,"Ġcap":2721,"Ġtaken":2722,"que":2723,"Ġmedic":2724,"Ġwander":2725,"Ġones":2726,"Ġstuff":2727,"Ġcomfortable":2728,"Ġmummy":2729,"Ġpacked":2730,"ggs":2731,"Ġexcitement":2732,"ond":2733,"Ġeggs":2734,"ella":2735,"ror":2736,"ser":2737,"Ġknight":2738,"ĠKitty":2739,"ĠSusie":2740,"ĠToday":2741,"Ġmiddle":2742,"Ġasking":2743,"Ġmedicine":2744,"Ġlose":2745,"There":2746,"ecially":2747,"Ġspend":2748,"Ġcrawl":2749,"Ġdest":2750,"ots":2751,"Ġsweetie":2752,"Ġbrush":2753,"Ġmatch":2754,"Ġtie":2755,"Ġchange":2756,"Ġlicked":2757,"Ġnumber":2758,"Ġflut":2759,"Ġdrum":2760,"Ġdrawing":2761,"pecially":2762,"Ġruined":2763,"Ġadd":2764,"Ġmov":2765,"Ġwalks":2766,"Ġespecially":2767,"Ġwheel":2768,"elp":2769,"Ġtape":2770,"Ġclap":2771,"Ġnod":2772,"ha":2773,"Ġlazy":2774,"ĠIf":2775,"iness":2776,"ugar":2777,"Ġsmelly":2778,"Ġglue":2779,"Ġweak":2780,"Ġgar":2781,"Ġballs":2782,"Ġsight":2783,"Ġhorn":2784,"Ġfake":2785,"Ġyours":2786,"Ġmoving":2787,"ĠBlue":2788,"Ġbody":2789,"Ġfeathers":2790,"Ġbake":2791,"Ġexam":2792,"Ġbathroom":2793,"Ġmirror":2794,"Ġdistance":2795,"Ġlying":2796,"Ġsugar":2797,"Ġok":2798,"Ġeld":2799,"Ġqueen":2800,"Ġcalling":2801,"Ġpleased":2802,"Ġroar":2803,"Now":2804,"ĠEventually":2805,"Ġplayground":2806,"Ġsplashed":2807,"Ġdisappeared":2808,"Ġfluffy":2809,"Ġbecome":2810,"Ġnoisy":2811,"aged":2812,"Help":2813,"Ġshows":2814,"ĠBobby":2815,"Ġcri":2816,"Ġdrank":2817,"Ġlead":2818,"Ġpray":2819,"Ġlemon":2820,"hip":2821,"Ġdecide":2822,"ating":2823,"ĠU":2824,"Ġmoms":2825,"Ġrid":2826,"Ġweek":2827,"Ġstones":2828,"Ġsell":2829,"Ġcage":2830,"ete":2831,"Ġrelax":2832,"Ġmic":2833,"uggest":2834,"Ġsuggest":2835,"Ġcovered":2836,"Ġjuicy":2837,"Ġtwist":2838,"Ġteam":2839,"ĠDan":2840,"Ġed":2841,"Ġquestions":2842,"Ġwrote":2843,"Ġdig":2844,"Ġsailed":2845,"yal":2846,"Ġboard":2847,"Ġcheck":2848,"Ġincred":2849,"Ġneeds":2850,"ory":2851,"Ġboys":2852,"Ġclear":2853,"ination":2854,"eez":2855,"Ġrare":2856,"Ġhurts":2857,"Ġfamous":2858,"Ġfine":2859,"Ġeager":2860,"Ġtowel":2861,"Ġsoap":2862,"Ġshoot":2863,"Ġord":2864,"Ġskipped":2865,"ĠRose":2866,"Ġdish":2867,"Ġcleaned":2868,"illi":2869,"alous":2870,"Be":2871,"Ġcontent":2872,"Ġjealous":2873,"Ġmeasure":2874,"Ġrich":2875,"Ġind":2876,"Ġfis":2877,"ĠMrs":2878,"Ġelderly":2879,"ĠBrown":2880,"Ġext":2881,"Ġfigure":2882,"Ġjoke":2883,"Ġloyal":2884,"Ġbubbles":2885,"ĠEllie":2886,"umbled":2887,"ti":2888,"ipp":2889,"Ġglow":2890,"Ġstraw":2891,"Ġfather":2892,"Ġincredible":2893,"Ġmotor":2894,"Ġchicken":2895,"Ġfrown":2896,"Ġbranches":2897,"Ġcoins":2898,"Ġgarage":2899,"Ġborrow":2900,"Ġeye":2901,"port":2902,"Ġham":2903,"Ġlouder":2904,"Ġwand":2905,"ĠEnd":2906,"imed":2907,"Ġcover":2908,"ipper":2909,"Ġwhale":2910,"Me":2911,"Ġchase":2912,"ĠElla":2913,"Ġbalance":2914,"Ġmod":2915,"Ġword":2916,"ddy":2917,"Ġunus":2918,"Ġaw":2919,"Ġhappening":2920,"Ġtrucks":2921,"Ġlaughs":2922,"imp":2923,"Ġcraw":2924,"Ġsword":2925,"Ġcrawled":2926,"Ġmap":2927,"Ġhose":2928,"Ġlamp":2929,"Ġorganized":2930,"Ġtiger":2931,"Ġunusual":2932,"ique":2933,"Ġtag":2934,"Ġguess":2935,"asing":2936,"keep":2937,"gu":2938,"Ġsil":2939,"Ġextra":2940,"Ġrealised":2941,"Well":2942,"Ġthick":2943,"Ġlifted":2944,"Ġbanana":2945,"Ġballoons":2946,"Ġonce":2947,"land":2948,"?\".":2949,"Ġunique":2950,"ately":2951,"ĠPete":2952,"fic":2953,"Ġcost":2954,"Ġoffered":2955,"Ġknife":2956,"Ġbottom":2957,"Ġfalls":2958,"Here":2959,"Ġshake":2960,"Ġfour":2961,"Ġswan":2962,"Ġmighty":2963,"Ġjewel":2964,"Ġdiscovered":2965,"alk":2966,"Ġturt":2967,"cil":2968,"Ġdiffic":2969,"Ġbrothers":2970,"Ġtoug":2971,"Ġflash":2972,"Ġpencil":2973,"Ġcolourful":2974,"ye":2975,"Lila":2976,"Ġkindness":2977,"Ġadventur":2978,"ages":2979,"Ġbarn":2980,"ery":2981,"Ġang":2982,"Ġhelps":2983,"ĠDucky":2984,"Ġharder":2985,"Ġfool":2986,"ĠFred":2987,"Ġhunt":2988,"Ġweird":2989,"Ġcompet":2990,"Ġdifficult":2991,"Ġpump":2992,"Ġadded":2993,"ĠBella":2994,"Ġcircle":2995,"cept":2996,"Ġdepend":2997,"Ġgiving":2998,"Ġsmoke":2999,"Ġdizzy":3000,"Ġbatter":3001,"iv":3002,"Ġdolp":3003,"olog":3004,"Ġadventurous":3005,"Ġhats":3006,"keeper":3007,"Ġmanaged":3008,"rag":3009,"Ġedge":3010,"Ġpointing":3011,"Ġrecord":3012,"Ġwrapped":3013,"Ġfright":3014,"Ġboxes":3015,"Ġwrap":3016,"fast":3017,"head":3018,"ĠMy":3019,"Ġgrown":3020,"Ġyog":3021,"Ġmarket":3022,"Ġapolog":3023,"ject":3024,"Ġwhisp":3025,"ured":3026,"Ġbelonged":3027,"uggled":3028,"Ġhero":3029,"Ġlog":3030,"Ġstrawber":3031,"ready":3032,"ĠMar":3033,"Ġspun":3034,"Ġskin":3035,"Ġbreakfast":3036,"Ġberries":3037,"Ġgoat":3038,"Ġbald":3039,"aw":3040,"Ġloudly":3041,"Ġbossy":3042,"Ġtough":3043,"Ġcher":3044,"Ġcrayon":3045,"ature":3046,"erry":3047,"Ġscare":3048,"Ġpee":3049,"Ġshape":3050,"Ġchoose":3051,"Ġnorm":3052,"Ġears":3053,"Ġmeans":3054,"Ġbrilli":3055,"Ġalready":3056,"Ġagainst":3057,"Ġknows":3058,"Ġcro":3059,"ouses":3060,"Ġbloom":3061,"Ġrough":3062,"Ġsearch":3063,"ym":3064,"Ġharm":3065,"Ġgrace":3066,"Ġoffice":3067,"ilt":3068,"ĠBobo":3069,"Ġimpressed":3070,"Ġcompetit":3071,"Ġdreamed":3072,"Ġcircles":3073,"Ġbrilliant":3074,"ĠMike":3075,"ĠMandy":3076,"Ġref":3077,"Ġwagon":3078,"Ġenjoying":3079,"ĠTweety":3080,"Ġcab":3081,"Ġmelt":3082,"Ġisland":3083,"Ġfavour":3084,"Ġsaying":3085,"Ġbirdie":3086,"Ġslipped":3087,"Ġmovie":3088,"Ġpainting":3089,"Ġlearning":3090,"lies":3091,"pes":3092,"Ġfoolish":3093,"Ġcabin":3094,"reen":3095,"Ġnormal":3096,"Ġicy":3097,"Ġhouses":3098,"Ġtrunk":3099,"Ġfat":3100,"emo":3101,"Ġsafely":3102,"Ġescape":3103,"Ġbuttons":3104,"Ġvalu":3105,"Ġfavourite":3106,"Ġjack":3107,"Ġcudd":3108,"Ġstubb":3109,"Ġspace":3110,"apping":3111,"Ġturtle":3112,"Ġstri":3113,"ĠNemo":3114,"Ġshark":3115,"Ġlaw":3116,"Ġdreams":3117,"anged":3118,"Ġshells":3119,"corn":3120,"laimed":3121,"Ġfridge":3122,"Ġguit":3123,"Ġstudy":3124,"Ġdependable":3125,"edient":3126,"arth":3127,"Ġexclaimed":3128,"Ġnotice":3129,"gy":3130,"Ġstubborn":3131,"Ġpoured":3132,"Ġlibr":3133,"Ġhappiness":3134,"ĠGrandpa":3135,"Ġsounded":3136,"rage":3137,"Ġter":3138,"Ġwake":3139,"Ġwalls":3140,"Ġtoast":3141,"Ġbags":3142,"omed":3143,"Ġthu":3144,"Ġfrightened":3145,"irp":3146,"Ġlean":3147,"Ġinvited":3148,"Ġnicely":3149,"Ġcheerful":3150,"Ġrat":3151,"Ġrose":3152,"ache":3153,"Ġsmaller":3154,"ado":3155,"Ġwiped":3156,"cient":3157,"Ġegg":3158,"ext":3159,"Ġpopcorn":3160,"Ġobedient":3161,"Ġproudly":3162,"Ġcam":3163,"Ġbitter":3164,"Ġclay":3165,"Ġtimes":3166,"Ġnosy":3167,"Ġroof":3168,"oppy":3169,"Ġtools":3170,"Ġlights":3171,"Ġvaluable":3172,"Ġmixed":3173,"Ġfountain":3174,"Ġweal":3175,"Ġdelicate":3176,"Ġguitar":3177,"Ġancient":3178,"Ġfier":3179,"Ġcrack":3180,"Ġuseful":3181,"Ġow":3182,"Ġpil":3183,"Ġlab":3184,"wards":3185,"ention":3186,"Ġunl":3187,"Ġaccept":3188,"Ġdead":3189,"Ġlocked":3190,"Ġcounted":3191,"Ġswe":3192,"Ġparrot":3193,"iable":3194,"Ġsuggested":3195,"Ġcop":3196,"ola":3197,"kn":3198,"ĠFr":3199,"Ġcity":3200,"Ġtwig":3201,"Ġdough":3202,"Ġzip":3203,"ĠYour":3204,"Ġfierce":3205,"Ġstumbled":3206,"rell":3207,"Ġfingers":3208,"Ġstove":3209,"Ġterri":3210,"Ġlow":3211,"Ġindepend":3212,"uth":3213,"Ġscrat":3214,"Ġspoiled":3215,"Ġresc":3216,"Ġbushes":3217,"Ġrode":3218,"Ġmem":3219,"Ġtummy":3220,"Ġseem":3221,"Ġdesign":3222,"orge":3223,"Ġholds":3224,"Ġfrag":3225,"Ġcleaning":3226,"Ġdove":3227,"Ġwhispered":3228,"Ġtunn":3229,"ither":3230,"Ġbeak":3231,"Ġthoughtful":3232,"Ġreliable":3233,"Ġkicked":3234,"Ġshadow":3235,"ĠDave":3236,"ipe":3237,"Ġspinning":3238,"Ġcone":3239,"Ġeng":3240,"Ġusing":3241,"Ġgrandpa":3242,"Ġgem":3243,"Ġkinds":3244,"Ġabove":3245,"Ġshowing":3246,"Ġexcitedly":3247,"Ġsteal":3248,"Ġstream":3249,"Ġstronger":3250,"Ġexplored":3251,"az":3252,"oot":3253,"Ġbounce":3254,"Ġbump":3255,"Ġsunfl":3256,"ĠWhenever":3257,"anut":3258,"Ġthemselves":3259,"Ġtomato":3260,"Ġpractice":3261,"Ġreminded":3262,"Ġmagn":3263,"Ġways":3264,"known":3265,"Ġstat":3266,"Ġbuilt":3267,"cod":3268,"atter":3269,"Ġbrightly":3270,"arry":3271,"Ġjog":3272,"Ġjoined":3273,"Ġindependent":3274,"Ġsuccessful":3275,"Ġyarn":3276,"ÅĵLet":3277,"mbrell":3278,"Ġjam":3279,"Ġwitch":3280,"Ġumbrell":3281,"pid":3282,"amond":3283,"inal":3284,"eeze":3285,"Ġtele":3286,"Ġhoop":3287,"Ġorig":3288,"Ġserious":3289,"Ġfragile":3290,"Ġunknown":3291,"Ġmarble":3292,"Ġhalf":3293,"Ġpainted":3294,"Ġboats":3295,"Ġpumpkin":3296,"Ġsniff":3297,"Ġdiamond":3298,"ĠLola":3299,"Ġshone":3300,"Ġclum":3301,"Ġcrocod":3302,"Ġtank":3303,"Ġsolve":3304,"Ġenorm":3305,"Ġrubb":3306,"Ġstupid":3307,"Ġbean":3308,"Ġsalad":3309,"Ġenormous":3310,"vice":3311,"Ġfre":3312,"Ġguard":3313,"Ġjolly":3314,"Ġstairs":3315,"eorge":3316,"Ġenc":3317,"Ġmetal":3318,"Ġpebble":3319,"Ġhammer":3320,"Ġdoesn":3321,"Ġperform":3322,"Ġplayful":3323,"Ġacorn":3324,"Ġadmired":3325,"Ġdust":3326,"Ġcostum":3327,"ĠSoph":3328,"Ġhelm":3329,"ĠKim":3330,"na":3331,"Ġthirst":3332,"Ġopens":3333,"Ġcheap":3334,"Ġbrace":3335,"Ġoriginal":3336,"Ġyet":3337,"Ġarg":3338,"Ġcamera":3339,"Ġaunt":3340,"Ġflashlight":3341,"Ġallowed":3342,"ines":3343,"Ġwashed":3344,"Ġfinding":3345,"dom":3346,"ray":3347,"Ġchanged":3348,"ĠToby":3349,"tern":3350,"Ġbees":3351,"Ġclumsy":3352,"Ġwealthy":3353,"Ġsleeping":3354,"Ġcompass":3355,"How":3356,"Ġpeanut":3357,"ict":3358,"ilty":3359,"Ġguilty":3360,"illa":3361,"inary":3362,"Ġtor":3363,"Ġdelighted":3364,"Ġpost":3365,"het":3366,"ugged":3367,"See":3368,"Ġhairy":3369,"anger":3370,"Ġmis":3371,"Ġsuit":3372,"Ġstops":3373,"Ġrushed":3374,"uring":3375,"ĠSn":3376,"Ġraced":3377,"Ġleaving":3378,"Ġgoose":3379,"Ġpicking":3380,"umbers":3381,"Ġmoder":3382,"llip":3383,"llipop":3384,"Ġprint":3385,"Ġthirsty":3386,"Ġsink":3387,"Ġtelling":3388,"Ġthose":3389,"Ġdull":3390,"Ġseeds":3391,"Go":3392,"Ġmissing":3393,"Ġknock":3394,"Ġpige":3395,"Ġarrow":3396,"Ġbeet":3397,"aghet":3398,"aghetti":3399,"Ġenvel":3400,"!\".":3401,"robe":3402,"Ġmask":3403,"ience":3404,"Ġlollipop":3405,"Ġhanded":3406,"iew":3407,"Ġthunder":3408,"Ġbull":3409,"Ġrub":3410,"Ġchose":3411,"Ġforth":3412,"Ġhay":3413,"fa":3414,"Ġrug":3415,"Ġspaghetti":3416,"Ġclock":3417,"Ġprep":3418,"Ġangel":3419,"Ġsauce":3420,"Ġshocked":3421,"Ġengine":3422,"Ġson":3423,"Ġview":3424,"ations":3425,"Re":3426,"ĠPe":3427,"Ġcomput":3428,"Ġstatue":3429,"Ġdolphin":3430,"Ġtowers":3431,"Ġdeliver":3432,"Ġpopular":3433,"Ġpotato":3434,"Ġdestro":3435,"Ġumbrella":3436,"Ġgraceful":3437,"ĠOnce":3438,"Ġmodern":3439,"ĠPat":3440,"Ġbarber":3441,"Ġcrocodile":3442,"Ġshel":3443,"Ġrubbed":3444,"Ġfriendship":3445,"eezed":3446,"Ġsne":3447,"Ġcompassion":3448,"Ġending":3449,"cu":3450,"isk":3451,"Ġgrand":3452,"ĠCl":3453,"Ġcarrying":3454,"Ġnurse":3455,"gest":3456,"Ġstage":3457,"Ġadvice":3458,"arsh":3459,"Ġregular":3460,"com":3461,"Ġnumbers":3462,"Ġflex":3463,"Ġload":3464,"Ġcareless":3465,"Ġcur":3466,"Ġmarch":3467,"Ġprize":3468,"Ġnature":3469,"oomy":3470,"Ġsearching":3471,"ebra":3472,"Ġpengu":3473,"Ġgasped":3474,"Ġing":3475,"Ġchar":3476,"ĠJoey":3477,"Ġspilled":3478,"Ġfresh":3479,"Ġpeeked":3480,"Ġbiggest":3481,"Ġcreate":3482,"Ow":3483,"Ġtruth":3484,"Ġflute":3485,"Ġterrible":3486,"ision":3487,"Ġscreen":3488,"redient":3489,"Ġingredient":3490,"time":3491,"ĠGeorge":3492,"Ġpiano":3493,"Ġcere":3494,"Ġearth":3495,"Ġdriving":3496,"Ġwire":3497,"shion":3498,"Ġstack":3499,"iches":3500,"Ġcomb":3501,"Ġtied":3502,"Ġstamp":3503,"Ġshiver":3504,"Ġavo":3505,"Ġpirate":3506,"Ġcrane":3507,"Ġjacket":3508,"ÅĵYes":3509,"Ġpattern":3510,"Ġthinking":3511,"Ġwing":3512,"Ġdreaming":3513,"io":3514,"Ġtem":3515,"Ġpatch":3516,"Ġwheels":3517,"Ġflexible":3518,"Ġtorn":3519,"ÅĵWhat":3520,"Ġzebra":3521,"ĠNext":3522,"Ġsquare":3523,"Ġreward":3524,"Ġmel":3525,"Ġcrazy":3526,"Ġjumps":3527,"ikes":3528,"Ġtooth":3529,"Ġpersist":3530,"Ġbeetle":3531,"Ġpant":3532,"Ġwindows":3533,"Ġimagined":3534,"awn":3535,"loo":3536,"Ġsurf":3537,"Ġperm":3538,"Ġearly":3539,"Ġtunnel":3540,"Ġstranger":3541,"Ġcomputer":3542,"They":3543,"host":3544,"Ġimpressive":3545,"Ġwarned":3546,"ĠHere":3547,"Ġsofa":3548,"Ġscatter":3549,"Ġmeal":3550,"Ġenv":3551,"Ġtrash":3552,"Ġscale":3553,"ĠLook":3554,"Ġhandle":3555,"Ġspring":3556,"Ġdesk":3557,"Ġliz":3558,"Ġbracelet":3559,"ĠBill":3560,"Ġenvelope":3561,"Ġspoke":3562,"Ġslides":3563,"He":3564,"Ġcollar":3565,"Ġcereal":3566,"Ġmole":3567,"Ġenth":3568,"ement":3569,"Ġpale":3570,"Ġingredients":3571,"ibb":3572,"âĤ¬âĢ":3573,"Ġsandwiches":3574,"ĠBear":3575,"Ġorder":3576,"Ġtrap":3577,"Ġbent":3578,"Ġghost":3579,"Ġer":3580,"Ġmailbox":3581,"Ġjug":3582,"Ġmush":3583,"ÅĵIt":3584,"Ġdiscover":3585,"Ġsadly":3586,"Ġpenny":3587,"Ġahead":3588,"Ġbadly":3589,"Ġsparkled":3590,"Ġenthus":3591,"Ġpow":3592,"ĠPolly":3593,"Ġtravel":3594,"ellig":3595,"Ġnote":3596,"ief":3597,"Ġpup":3598,"ĠAndy":3599,"Ġsunflower":3600,"Ġfork":3601,"ĠAlex":3602,"Ġnames":3603,"Ġintellig":3604,"Ġcounting":3605,"ĠGive":3606,"Ġreading":3607,"Ġdestroy":3608,"aid":3609,"Ġsorts":3610,"Ġmay":3611,"Ġlibrary":3612,"Ġpretending":3613,"Ġparade":3614,"Ġharmless":3615,"Ġsuper":3616,"Ġuncle":3617,"Ġcomplet":3618,"Ġblueber":3619,"Ġstickers":3620,"Ġgrowing":3621,"ĠBa":3622,"tter":3623,"Yay":3624,"Ġletters":3625,"Ġsudden":3626,"Ġquestion":3627,"comfort":3628,"Ġcryst":3629,"Ġhumble":3630,"Ġbeauty":3631,"Ġobject":3632,"Ġrece":3633,"ÅĵLetÃ¢":3634,"Ġbeep":3635,"Ġencou":3636,"Ġolder":3637,"Ġcelebrate":3638,"Ġshut":3639,"comfortable":3640,"Ġbandage":3641,"Ġuncomfortable":3642,"Ġcompetitive":3643,"ĠTweetie":3644,"bled":3645,"Ġtask":3646,"Ġpasta":3647,"Ġhung":3648,"aches":3649,"ric":3650,"illie":3651,"ĠPaul":3652,"Ġcards":3653,"Ġbutterflies":3654,"Ġplaced":3655,"ĠcouldnÃ¢":3656,"Ġtrack":3657,"Ġrules":3658,"Ġnail":3659,"ips":3660,"Ġleash":3661,"Ġpigeon":3662,"Ġgor":3663,"Ġflour":3664,"Ġcompl":3665,"Ġstation":3666,"Ġcooking":3667,"ince":3668,"Ġyawn":3669,"Ġsnuggled":3670,"Ġpersistent":3671,"orant":3672,"stri":3673,"Ġmill":3674,"Ġdeaf":3675,"Ġstarts":3676,"Ġtriang":3677,"Ġvalue":3678,"ud":3679,"Ġlizard":3680,"Ġcupboard":3681,"Ġclub":3682,"Ġotter":3683,"ĠBrownie":3684,"Ġwaff":3685,"Ġmushroom":3686,"Ġanx":3687,"Ġscoot":3688,"Ġgifted":3689,"Give":3690,"arian":3691,"Ġchance":3692,"Ġsoldier":3693,"ses":3694,"opus":3695,"ctopus":3696,"Ġtrick":3697,"Ġphot":3698,"ĠUn":3699,"Ġtwirled":3700,"Ġordinary":3701,"ubby":3702,"Ġgloomy":3703,"Ġhipp":3704,"Ġcharming":3705,"ĠSm":3706,"Ġignorant":3707,"Ġcurt":3708,"ĠSh":3709,"Ġnuts":3710,"gust":3711,"Ġdrawer":3712,"oe":3713,"ices":3714,"Tommy":3715,"Ġsett":3716,"Ġanxious":3717,"Ġhurry":3718,"Ġcurtain":3719,"Ġchasing":3720,"Ġrefused":3721,"Ġneat":3722,"cream":3723,"Ġbase":3724,"ĠSophie":3725,"Ġdisgust":3726,"Ġspeed":3727,"Ġoctopus":3728,"Ġhunter":3729,"Ġshine":3730,"Ġsend":3731,"Ġcompassionate":3732,"Ġdug":3733,"Ġuniver":3734,"ĠGrace":3735,"Ġhook":3736,"Ġpurse":3737,"Ġanywhere":3738,"cut":3739,"Ġpony":3740,"ĠLee":3741,"Ġallig":3742,"Ġshouts":3743,"Ġintelligent":3744,"Max":3745,"aff":3746,"Ġshaking":3747,"Ġwishes":3748,"Ġcamp":3749,"ĠAre":3750,"ĠWhere":3751,"Ġtire":3752,"aked":3753,"Ġled":3754,"ceed":3755,"Ġalert":3756,"Bye":3757,"Ġpepper":3758,"Ġattract":3759,"erable":3760,"Ġgum":3761,"Ġbounced":3762,"Ġcase":3763,"Ġjet":3764,"Ġcarp":3765,"Ġchubby":3766,"Ġbicy":3767,"Ġtur":3768,"Ġmiserable":3769,"Ġcartoon":3770,"Ġfearful":3771,"Ġfu":3772,"ĠJerry":3773,"Ġresist":3774,"Ġdecorate":3775,"Ġcricket":3776,"Ġpand":3777,"Ġcomet":3778,"Ġimpat":3779,"Ġlively":3780,"Ġcreatures":3781,"Ġsquash":3782,"Ġostri":3783,"coa":3784,"urb":3785,"Ġitself":3786,"Ġthief":3787,"Ġgorilla":3788,"Ġpracticed":3789,"htub":3790,"Ġdisturb":3791,"Ġcourage":3792,"Ġdess":3793,"Ġbathtub":3794,"Ġfort":3795,"Ġsandbox":3796,"Ġgir":3797,"Ġimpatient":3798,"Ġbrighter":3799,"Ġhelmet":3800,"ummer":3801,"ĠCharl":3802,"Ġsupport":3803,"Ġfilthy":3804,"Ġener":3805,"Ġpressed":3806,"Ġpants":3807,"Ġtap":3808,"Ġbackpack":3809,"Ġturkey":3810,"If":3811,"Ġenvious":3812,"Timmy":3813,"Ġhippo":3814,"Ġbri":3815,"Ġbarking":3816,"Ġdisgusting":3817,"Ġvine":3818,"Ġpulls":3819,"lcano":3820,"Ġtray":3821,"Ġneedle":3822,"enry":3823,"icop":3824,"Ġhelpless":3825,"Ġsomewhere":3826,"icopter":3827,"Ġten":3828,"Ġskip":3829,"Ġgrabs":3830,"Ġrice":3831,"Ġthread":3832,"Ġbet":3833,"Ġsucceed":3834,"Ġcarpet":3835,"noon":3836,"rr":3837,"Ġafternoon":3838,"aurant":3839,"Ġlid":3840,"Ġhelicopter":3841,"Ġmonkeys":3842,"Ġnobody":3843,"iest":3844,"Ġmelon":3845,"Ġrestaurant":3846,"ĠBuddy":3847,"Ġmug":3848,"Ġrestless":3849,"ĠBefore":3850,"Ġcrystal":3851,"Ġsalt":3852,"Ġseal":3853,"Ġattic":3854,"Ġrespectful":3855,"Ġrepe":3856,"orable":3857,"Ġcocoa":3858,"ĠMillie":3859,"Ġjeep":3860,"Ġpoem":3861,"Ġtrump":3862,"Ġvolcano":3863,"Ġnowhere":3864,"Ġstretch":3865,"Ġhuman":3866,"ĠBet":3867,"Ġspell":3868,"Ġfinds":3869,"Ġstretched":3870,"Ġsteps":3871,"Ġradio":3872,"Ġfive":3873,"ĠRo":3874,"Ġbarrel":3875,"Ġshoe":3876,"ĠAnnie":3877,"und":3878,"Ġalligator":3879,"Ġmath":3880,"Ġsock":3881,"ĠSandy":3882,"Ġleop":3883,"Ġattractive":3884,"gn":3885,"Ġelev":3886,"night":3887,"Ġfirework":3888,"Ġharsh":3889,"Ġadmire":3890,"Ġcooked":3891,"Ġstirred":3892,"heart":3893,"Ġanyway":3894,"ÅĵThat":3895,"Ġgiggle":3896,"Ġmeas":3897,"Ġmuff":3898,"Ġtripped":3899,"Ġraven":3900,"Ġimpro":3901,"gging":3902,"Ġsticker":3903,"Ġostrich":3904,"Ġadorable":3905,"ĠTr":3906,"aroo":3907,"Ġcats":3908,"angaroo":3909,"Ġpackage":3910,"Ġvide":3911,"Ġunpack":3912,"Ġcandle":3913,"Ġsoar":3914,"Ġsplit":3915,"Ġexplain":3916,"Ġelevator":3917,"Ġants":3918,"Ġfle":3919,"Ġmodest":3920,"Ġshield":3921,"Ġreco":3922,"Ġdessert":3923,"Ġlions":3924,"Ġdistant":3925,"par":3926,"Ġpun":3927,"Ġtroubled":3928,"Ġpushes":3929,"Ġcows":3930,"Ġfrowned":3931,"Ġfurther":3932,"Ġtrumpet":3933,"Ġsepar":3934,"Ġsweater":3935,"Ġkangaroo":3936,"Ġsort":3937,"Ġvi":3938,"Ġpaws":3939,"Ġribb":3940,"Ġstared":3941,"Ġbicycle":3942,"Ġbikes":3943,"ĠEverything":3944,"Ġbreat":3945,"Ġhappier":3946,"Ġchalk":3947,"stairs":3948,"ophone":3949,"Ġmagnet":3950,"stic":3951,"Ġfireman":3952,"Ġorganize":3953,"Ġscrew":3954,"Ġbears":3955,"Ġpole":3956,"Ġsheet":3957,"Ġholes":3958,"ĠSmith":3959,"Ġpushing":3960,"Ġsailor":3961,"Ġlistening":3962,"Ġsummer":3963,"iastic":3964,"ĠMaria":3965,"Ġenthusiastic":3966,"Ġur":3967,"ĠWill":3968,"Ġleopard":3969,"Ġsle":3970,"Ġsent":3971,"Ġchecked":3972,"Ġwallet":3973,"uct":3974,"ĠRed":3975,"ĠBunny":3976,"Ġmessage":3977,"Ġtrains":3978,"Ġeither":3979,"Ġscooter":3980,"cast":3981,"come":3982,"astic":3983,"Ġexper":3984,"Ġsize":3985,"iskers":3986,"Ġswitch":3987,"Ġhaircut":3988,"Ġloop":3989,"Ġriding":3990,"gie":3991,"inking":3992,"Ġquar":3993,"Ġbehave":3994,"ĠRos":3995,"Ġdishes":3996,"Ġsilver":3997,"Ġhall":3998,"Ġsandcast":3999,"enny":4000,"Ġchain":4001,"ĠCharlie":4002,"cond":4003,"Ġobser":4004,"Ġshakes":4005,"Ġlightning":4006,"ĠWhiskers":4007,"Ġhive":4008,"Ġjokes":4009,"Ġrescue":4010,"Ġsecond":4011,"Ġforgave":4012,"Ġpapers":4013,"ccol":4014,"Ġcube":4015,"Ġroared":4016,"ĠOr":4017,"ccoli":4018,"Ġswinging":4019,"happy":4020,"Ġoy":4021,"ĠWould":4022,"Ġquite":4023,"Ġspeak":4024,"Ġjellyfish":4025,"ci":4026,"Ġscold":4027,"Ġprov":4028,"cycle":4029,"ĠSnow":4030,"Ġpal":4031,"ĠHenry":4032,"Ġshovel":4033,"elery":4034,"Ġlip":4035,"ĠdidnÃ¢":4036,"Ġpanda":4037,"edy":4038,"erop":4039,"eropl":4040,"Ġmama":4041,"Ġpaid":4042,"Ġrepair":4043,"Ġaeropl":4044,"Ġmicr":4045,"Ġeras":4046,"ube":4047,"ucked":4048,"Ġrecogn":4049,"Ġbrus":4050,"Ġavoc":4051,"Ġcountry":4052,"bul":4053,"ipping":4054,"Ġhedge":4055,"year":4056,"Ġbelt":4057,"Ġsweetheart":4058,"Ġsteak":4059,"hood":4060,"Ġsoftly":4061,"Ġfalling":4062,"Ġwheat":4063,"Ġgiven":4064,"Ġbuzz":4065,"reci":4066,"Ġmeat":4067,"Ġtriangle":4068,"Ġpor":4069,"Ġalive":4070,"ĠPap":4071,"Ġbreaks":4072,"Ġcact":4073,"Ġplanet":4074,"aulif":4075,"Ġunhappy":4076,"Ġgrapes":4077,"Ġcardboard":4078,"Ġmicrophone":4079,"aulifl":4080,"Ġappreci":4081,"ĠLilly":4082,"Ġbarks":4083,"Ġmild":4084,"ense":4085,"eer":4086,"Ġstarting":4087,"irit":4088,"Ġbroccoli":4089,"Ġenergy":4090,"Ġshelter":4091,"Ġpipe":4092,"Ġpalace":4093,"Ġclapping":4094,"Ġpenguin":4095,"Ġshade":4096,"Ġflies":4097,"Ġtube":4098,"Ġpeek":4099,"Ġped":4100,"Ġsprink":4101,"Ġshopkeeper":4102,"ĠMag":4103,"Ġcord":4104,"ffe":4105,"ebook":4106,"Ġnotebook":4107,"aled":4108,"Ġgoal":4109,"Ġvisited":4110,"ffee":4111,"Ġmen":4112,"Ġfeelings":4113,"olin":4114,"Ġcelery":4115,"Ġcaulifl":4116,"ĠBaby":4117,"Ġol":4118,"Ġstom":4119,"Ġtricks":4120,"ailable":4121,"Ġboots":4122,"Ġcolours":4123,"Ġneighbour":4124,"seum":4125,"Ġlear":4126,"Ġdrawings":4127,"ĠPapa":4128,"Ġlearnt":4129,"Ġluck":4130,"Ġclimbing":4131,"Ġbasketball":4132,"Ġpoint":4133,"Ġrubber":4134,"Ġcostume":4135,"iron":4136,"Ġputting":4137,"Ġframe":4138,"Ġcactus":4139,"Ġraft":4140,"Ġstrawberry":4141,"Ġlawy":4142,"ĠJess":4143,"Ġsoil":4144,"ĠKate":4145,"Ha":4146,"Ġsmells":4147,"Ġjournal":4148,"Ġavailable":4149,"Ġpilot":4150,"Ġmuseum":4151,"Ġmarry":4152,"Ġbananas":4153,"Ġbin":4154,"Ġbur":4155,"Ġgolf":4156,"Ġsaus":4157,"Ġrod":4158,"Ġdispl":4159,"Ġheads":4160,"Ġtax":4161,"Ġambul":4162,"Ġinse":4163,"ooped":4164,"Ġvend":4165,"Ġraining":4166,"imi":4167,"Ġzoomed":4168,"Mia":4169,"Ġdive":4170,"Ġbul":4171,"Ġfolder":4172,"ges":4173,"Ġdrops":4174,"Ġairport":4175,"Ġstrugg":4176,"icer":4177,"ÅĵYou":4178,"ecause":4179,"Ġended":4180,"Ġjudge":4181,"ron":4182,"Ġink":4183,"ait":4184,"Ġshrimp":4185,"ĠTed":4186,"Ġoat":4187,"Ġreind":4188,"Ġpair":4189,"Ġcauliflower":4190,"ĠBun":4191,"Ġspirit":4192,"Ġquit":4193,"Ġknot":4194,"reeze":4195,"Ġtuna":4196,"Ġeraser":4197,"Ġtreasures":4198,"nger":4199,"Ġstuffed":4200,"Ġleaned":4201,"ophy":4202,"ĠHarry":4203,"Ġbulb":4204,"render":4205,"Ġpad":4206,"Ġmarched":4207,"Ġcups":4208,"iling":4209,"Ġart":4210,"pe":4211,"Ġhoping":4212,"Ġambulance":4213,"Ġthanks":4214,"Ġpolish":4215,"Ġshort":4216,"ĠInst":4217,"Ġevening":4218,"Ġdisag":4219,"Ġbelongs":4220,"Ġwool":4221,"Ġonion":4222,"Ġgro":4223,"Ġdisplay":4224,"Ġtaxi":4225,"hino":4226,"nam":4227,"Ġtub":4228,"Ġlend":4229,"Ġprun":4230,"Ġthrows":4231,"ĠMiss":4232,"Ġreindeer":4233,"azz":4234,"Ġlie":4235,"mand":4236,"Ġcoffee":4237,"Ġfootball":4238,"Ġhadn":4239,"Ġswung":4240,"Ġtrophy":4241,"Ġappl":4242,"Ġcooler":4243,"Ġyogurt":4244,"ccer":4245,"Ġrag":4246,"Ġhotel":4247,"Ġunlock":4248,"Ġinsist":4249,"Ġlaund":4250,"ĠRu":4251,"Ġcounter":4252,"Ġvendor":4253,"Ġlives":4254,"Ġfilm":4255,"Ġlaundry":4256,"Ġyach":4257,"Ġsoccer":4258,"ĠDanny":4259,"Ġcomplete":4260,"Ġporch":4261,"Ġimagine":4262,"kelet":4263,"Ġrhino":4264,"Dad":4265,"ef":4266,"ĠMimi":4267,"Ġapologized":4268,"Ġrever":4269,"Ġpoints":4270,"Ġrolling":4271,"Ġshouldn":4272,"Ġincl":4273,"sely":4274,"ected":4275,"Ġpage":4276,"Ġmedal":4277,"anic":4278,"Ġfields":4279,"zzy":4280,"Ġflame":4281,"izes":4282,"quit":4283,"aces":4284,"Ġoil":4285,"urch":4286,"Ġimagination":4287,"Ġdiary":4288,"Ġlawyer":4289,"chanic":4290,"Ġfauc":4291,"Ġwaving":4292,"Ġmule":4293,"Ġviolin":4294,"Ġaeroplane":4295,"Ġskill":4296,"Ġcheek":4297,"Ġquarrel":4298,"ney":4299,"ween":4300,"ides":4301,"Ġmechanic":4302,"Ġpainter":4303,"Ġpirates":4304,"Ġplayer":4305,"Ġax":4306,"ĠJames":4307,"Ġcoal":4308,"Ġyacht":4309,"Ġclosely":4310,"Ġkay":4311,"ĠdonÃ¢":4312,"Ġbetween":4313,"ĠRosie":4314,"Ġwinter":4315,"eath":4316,"nament":4317,"Ġforgotten":4318,"Ġpeach":4319,"Ġeagerly":4320,"Ġsym":4321,"Ġfrogs":4322,"Ġcreated":4323,"quito":4324,"Ġtheater":4325,"Ġornament":4326,"Ġskelet":4327,"Ġsir":4328,"Ġfreez":4329,"..":4330,"Ġfaucet":4331,"Ġmixer":4332,"ites":4333,"Ġmos":4334,"Ġperfectly":4335,"aused":4336,"Ġcherries":4337,"ckey":4338,"Ġhockey":4339,"Ġbaking":4340,"Ġattention":4341,"Ġminute":4342,"Ġflea":4343,"Ġshouting":4344,"Ġchirp":4345,"ctory":4346,"Ġsurrender":4347,"Ġcable":4348,"Ġwife":4349,"Ġhut":4350,"Jim":4351,"Ġlaser":4352,"Ġslept":4353,"Ġherb":4354,"place":4355,"affe":4356,"ĠTony":4357,"Ġknob":4358,"Ġvest":4359,"ĠInstead":4360,"Ġfactory":4361,"âĤ¬âĢľ":4362,"bol":4363,"Ġwipe":4364,"Ġphoto":4365,"Ġseeing":4366,"Ġmosquito":4367,"iture":4368,"urniture":4369,"gen":4370,"Ġaxe":4371,"Ġfurniture":4372,"Ġpoke":4373,"Ġsquirrels":4374,"Ġsymbol":4375,"Ġreef":4376,"Ġgreedy":4377,"Ġpowder":4378,"Ġtrail":4379,"Ġpit":4380,"ple":4381,"Ġskeleton":4382,"llie":4383,"Ġvet":4384,"Ġargue":4385,"Ġlime":4386,"Ġinsect":4387,"Ġfisher":4388,"Ġplastic":4389,"Ġsunset":4390,"any":4391,"Ġslipper":4392,"ĠMaggie":4393,"spap":4394,"lass":4395,"una":4396,"Your":4397,"Ġsung":4398,"Ġhopes":4399,"Ġig":4400,"Ġnewspap":4401,"Ġpetals":4402,"Ġigloo":4403,"Ġmotorcycle":4404,"Ġsneak":4405,"Ġiron":4406,"ories":4407,"Ġslippery":4408,"Ġkitty":4409,"Ġcushion":4410,"Ġtwink":4411,"Ġmeeting":4412,"Ġbattery":4413,"Ġweather":4414,"Ġgiraffe":4415,"Ġstud":4416,"Ġcalls":4417,"Ġbreeze":4418,"Ġoffer":4419,"Ġvroom":4420,"Ġheaded":4421,"And":4422,"Ġmagaz":4423,"ceros":4424,"Ġzipper":4425,"inarian":4426,"eterinarian":4427,"Ġblowing":4428,"Ġmaze":4429,"Ġveterinarian":4430,"Ġfireplace":4431,"ues":4432,"Ġblankets":4433,"Ġfishing":4434,"Ġwags":4435,"ĠMay":4436,"aws":4437,"Ġbury":4438,"ĠAb":4439,"Ġchickens":4440,"Ġoyster":4441,"mm":4442,"Ġparent":4443,"Ġpopped":4444,"Jack":4445,"Ġpine":4446,"Ġtemple":4447,"Ġhappens":4448,"Ġchurch":4449,"Ġrhinoceros":4450,"Ġitch":4451,"Ġsprayed":4452,"Ġgrin":4453,"Ġquack":4454,"Ġdoors":4455,"Ġshower":4456,"Ġseas":4457,"Ġcob":4458,"angu":4459,"Ġskull":4460,"ĠJul":4461,"Ġnapkin":4462,"ĠGod":4463,"men":4464,"Ġglowing":4465,"Ġmystery":4466,"Mama":4467,"ison":4468,"imney":4469,"Ġtear":4470,"Ġlangu":4471,"web":4472,"Ġstaff":4473,"hero":4474,"Ġrot":4475,"Ġfollows":4476,"Ġpassport":4477,"Ġburned":4478,"Ġkayak":4479,"Ġreve":4480,"Ġchimney":4481,"Ġflapped":4482,"lasses":4483,"Ġhanging":4484,"Ġble":4485,"elcome":4486,"Ġcane":4487,"orses":4488,"Ġvideo":4489,"Ġnovel":4490,"Ġcelebrated":4491,"Ġsuperhero":4492,"Ġfisherman":4493,"Ġsunglasses":4494,"sing":4495,"was":4496,"Ġbother":4497,"erc":4498,"Ġsniffed":4499,"Ġshrugged":4500,"Ġswamp":4501,"Ġsurround":4502,"Ġgolden":4503,"Ġglove":4504,"Mum":4505,"Ġcomplain":4506,"Ġbaseball":4507,"Ġhorses":4508,"Ġlotion":4509,"Ġwriting":4510,"unately":4511,"Ġshoulder":4512,"chair":4513,"Ġcobweb":4514,"washer":4515,"Ġdear":4516,"Ġmistakes":4517,"Ġtrave":4518,"tress":4519,"Ġmattress":4520,"Ġmemories":4521,"Ġdishwasher":4522,"Ġignored":4523,"Ġkingdom":4524,"Ġavocado":4525,"Ġgrocer":4526,"Molly":4527,"Ġsticky":4528,"Wait":4529,"Ġhar":4530,"Ġcell":4531,"Ġmoves":4532,"Ġdisappear":4533,"Ġweigh":4534,"reek":4535,"ĠKat":4536,"Ġwelcomed":4537,"case":4538,"Ġtoil":4539,"Ġcreek":4540,"Ġpist":4541,"Ġbeef":4542,"Ġdancer":4543,"Ġunif":4544,"Ġsque":4545,"ĠTrue":4546,"Ġsailing":4547,"tain":4548,"Ġcared":4549,"Ġeaten":4550,"Ġbouncing":4551,"Ġpistol":4552,"Ġfought":4553,"ĠSee":4554,"rosc":4555,"medi":4556,"Ġseparate":4557,"Ġuniform":4558,"ĠClara":4559,"Ġexerc":4560,"Ġdiscu":4561,"mediately":4562,"Ġarmchair":4563,"right":4564,"roscope":4565,"aud":4566,"Ġfog":4567,"Ġceiling":4568,"ler":4569,"ssible":4570,"Ġagre":4571,"Ġtoilet":4572,"Ġoak":4573,"Ġveil":4574,"Ġthrowing":4575,"Ġinvest":4576,"Ġtug":4577,"Ġworth":4578,"vision":4579,"inked":4580,"ĠitÃ¢":4581,"Ġsince":4582,"rod":4583,"Ġattach":4584,"Ġfreezer":4585,"Ġagree":4586,"ab":4587,"asis":4588,"ĠSte":4589,"Ġcrib":4590,"Ġinvestig":4591,"Ġpresents":4592,"Ġyield":4593,"Ġprevent":4594,"Ġintrod":4595,"Ġcollected":4596,"Ġmicroscope":4597,"ĠHelp":4598,"ĠSad":4599,"ĠFirst":4600,"Ġquietly":4601,"Ġclassroom":4602,"Ġscolded":4603,"Ġsizes":4604,"Ġoasis":4605,"Ġward":4606,"Ġsigh":4607,"Ġstreng":4608,"Ġapplaud":4609,"Ġlicks":4610,"ggy":4611,"Ġtut":4612,"Ġpastry":4613,"Qu":4614,"chie":4615,"Ġregret":4616,"Ġcoats":4617,"Ġwardrobe":4618,"Ġpur":4619,"Ġalarm":4620,"Ġmustache":4621,"Ġcandles":4622,"Ġcrow":4623,"Ġstrength":4624,"Ġchoice":4625,"te":4626,"ĠIÃ¢":4627,"Ġcastles":4628,"Ġpuddles":4629,"ives":4630,"house":4631,"Ġcaring":4632,"Ġmop":4633,"Ġapart":4634,"Because":4635,"Ġwhisper":4636,"Ġtelevision":4637,"omes":4638,"Ġnewspaper":4639,"Ġjewelry":4640,"ĠTina":4641,"Ġchairs":4642,"ival":4643,"Ġchess":4644,"Ġrooms":4645,"Ġfloat":4646,"Ġradish":4647,"Ġsub":4648,"Ġyoga":4649,"ĠFreddy":4650,"Ġmakeup":4651,"Ġpear":4652,"ction":4653,"Ġstraight":4654,"Ġtrusted":4655,"Ġinvestigate":4656,"Ġskirt":4657,"Ġkisses":4658,"ety":4659,"anges":4660,"Ġcabinet":4661,"Ġsqueezed":4662,"Ġdressed":4663,"Ġimprove":4664,"Ġgym":4665,"Ġcrawling":4666,"Ġblueberries":4667,"Ġworms":4668,"ÅĵItÃ¢":4669,"Ġblinked":4670,"Ġpra":4671,"Ġnews":4672,"Ġhurting":4673,"Ġbookcase":4674,"Ġmatches":4675,"Ġblood":4676,"Ġentered":4677,"Ġkeeping":4678,"Ġdelay":4679,"Ġappro":4680,"Ġdemand":4681,"Ġrake":4682,"iction":4683,"ores":4684,"Thanks":4685,"Ġtornado":4686,"Ġaccepted":4687,"alley":4688,"Ġsplashing":4689,"ictionary":4690,"lid":4691,"Ġstable":4692,"Ġsqueeze":4693,"Ġserve":4694,"Ġminer":4695,"Did":4696,"Ġtucked":4697,"Ġstro":4698,"Ġboot":4699,"Ġclaws":4700,"Ġraz":4701,"Ġsandcastle":4702,"Ġsuff":4703,"Ġamazement":4704,"ring":4705,"Ġmusician":4706,"Ġweep":4707,"Ġlawn":4708,"Ġsteam":4709,"ĠOllie":4710,"Ġaut":4711,"Ġsnap":4712,"Ġfest":4713,"Ġdictionary":4714,"Ġrise":4715,"Ġvalley":4716,"ĠBuzz":4717,"sit":4718,"fume":4719,"ĠLuck":4720,"Ġholid":4721,"Ġpuzzles":4722,"Ġthumb":4723,"Ġgrill":4724,"ups":4725,"Ġcrossed":4726,"Ġlanguage":4727,"Ġblouse":4728,"Ġpinch":4729,"Ġreaches":4730,"Ġjunk":4731,"Ġeasily":4732,"ĠLuckily":4733,"Ġyucky":4734,"Ġperfume":4735,"Ġsi":4736,"Ġrequ":4737,"chor":4738,"Ġwigg":4739,"Ġletting":4740,"Ġmagazine":4741,"Ġspear":4742,"raged":4743,"Ġhelper":4744,"Ġrail":4745,"Ġcliff":4746,"ĠHowever":4747,"Ġweap":4748,"ĠMe":4749,"ĠWho":4750,"Ġwandered":4751,"ĠSnowy":4752,"Ġstrawberries":4753,"ĠV":4754,"Ġshrink":4755,"Ġbirdc":4756,"Ġticket":4757,"Ġrelaxed":4758,"ĠEach":4759,"ĠCo":4760,"Ġgrowled":4761,"Ġharb":4762,"Ġtong":4763,"mend":4764,"Ġcrash":4765,"Ġbirdcage":4766,"ah":4767,"Ġtutor":4768,"Ġopera":4769,"Ġbill":4770,"Ġplates":4771,"Ġmint":4772,"Ġrazor":4773,"Ġpoked":4774,"Ġbelow":4775,"Ġplanes":4776,"Ġincre":4777,"Ġanchor":4778,"Ġhearts":4779,"Is":4780,"hic":4781,"ommend":4782,"Ġinf":4783,"inky":4784,"Ġvehic":4785,"Ġrecommend":4786,"omeday":4787,"Ġmarried":4788,"Ġbleed":4789,"Ġlic":4790,"Ġrequest":4791,"Ġroot":4792,"Ġribbon":4793,"Ġringing":4794,"Ġwaste":4795,"ived":4796,"Ġwaffle":4797,"Ġtrade":4798,"Ġcub":4799,"Ġberry":4800,"uch":4801,"bbie":4802,"Ġkneel":4803,"ising":4804,"Ġinstr":4805,"sters":4806,"Ġisn":4807,"âĤ¬.":4808,"Ġsneeze":4809,"Ġfallen":4810,"cakes":4811,"Ġteleph":4812,"Ġholiday":4813,"omob":4814,"icing":4815,"ĠBetsy":4816,"Ġvac":4817,"Ġsurprises":4818,"ĠLiz":4819,"fortunately":4820,"Ġharbor":4821,"Ġbumped":4822,"Yuck":4823,"riger":4824,"Ġmass":4825,"Ġwarmth":4826,"Ġfestival":4827,"Ġenter":4828,"rigerator":4829,"Ġwine":4830,"Ġdried":4831,"Ġideas":4832,"Ġblackboard":4833,"Ġbathe":4834,"Ġimmediately":4835,"Ġraise":4836,"Ġrefrigerator":4837,"Ġfile":4838,"Ġlumber":4839,"Ġsocks":4840,"Ġbegged":4841,"Ġfollowing":4842,"Ġport":4843,"Ġtelephone":4844,"Ġmyself":4845,"Ġfuel":4846,"Ġmuffin":4847,"Ġautomob":4848,"lier":4849,"Ġsupply":4850,"Ġdresses":4851,"Ġlaught":4852,"Ġunderstanding":4853,"Ġreverse":4854,"Ġexperience":4855,"Ġsomeday":4856,"Ġcale":4857,"Ġprop":4858,"Ġremove":4859,"Ġspots":4860,"Ġcalend":4861,"Ġsnapped":4862,"oral":4863,"ampoo":4864,"Ġdestroyed":4865,"Ġburied":4866,"Ġscattered":4867,"Ġbravely":4868,"Ġrefre":4869,"Ġlaughter":4870,"ari":4871,"Ġinvite":4872,"Ġmoments":4873,"Ġcuddled":4874,"ission":4875,"Ġcalendar":4876,"'ve":4877,"Ġapron":4878,"Ġcaptain":4879,"achel":4880,"ĠFo":4881,"Ġpermission":4882,"Ġlemonade":4883,"Ġtoes":4884,"aped":4885,"ucture":4886,"Ġdifferen":4887,"Ġstructure":4888,"Ġflutter":4889,"rm":4890,"Ġasht":4891,"ĠPeople":4892,"Ġbookshe":4893,"Ġskills":4894,"Ġshampoo":4895,"Ġtaller":4896,"Ġsaving":4897,"Ġhits":4898,"Ġyawned":4899,"Ġlicense":4900,"ĠHave":4901,"ĠRuby":4902,"Ġtherm":4903,"Ġknown":4904,"Ġspending":4905,"Ġbeans":4906,"Ġdire":4907,"Ġbalan":4908,"Ġsafety":4909,"Ġjewels":4910,"ĠRachel":4911,"Ġspade":4912,"Ġignore":4913,"Ok":4914,"reat":4915,"Ġrabbits":4916,"Ġashtray":4917,"Ġpages":4918,"Ġearlier":4919,"Ġlabel":4920,"Ġhomes":4921,"Ġbeamed":4922,"ĠPoppy":4923,"ĠChirp":4924,"Ġhanger":4925,"Ġsits":4926,"Ġprepare":4927,"Ġbreathe":4928,"Welcome":4929,"Ġbookshelf":4930,"Ġhardly":4931,"Ġfastest":4932,"Ġsparkling":4933,"Ġthermomet":4934,"Ġdecorations":4935,"Ġinsisted":4936,"Ġtongue":4937,"Ġmissile":4938,"Ġpatiently":4939,"Ġfiref":4940,"Ġteaching":4941,"vet":4942,"Ġrow":4943,"Ġjail":4944,"Ġappreciate":4945,"Ġsubway":4946,"Ġplays":4947,"Ġres":4948,"Ġairpl":4949,"Ġadmir":4950,"'.":4951,"ĠJoy":4952,"Ġvanished":4953,"Ġthermometer":4954,"Ġcherry":4955,"Ġwashing":4956,"ĠIts":4957,"Ġsettled":4958,"Ġpraised":4959,"Ġalright":4960,"Ġbelieved":4961,"Ġdestination":4962,"amber":4963,"Ġdrain":4964,"Ġremain":4965,"Ġsparkle":4966,"Ġbrain":4967,"Ġbuckle":4968,"Ġscore":4969,"Ġgifts":4970,"Ġvacation":4971,"Ġhills":4972,"ĠEveryday":4973,"Ġclimbs":4974,"ium":4975,"Ġgear":4976,"Ġpride":4977,"Ġreplace":4978,"Ġmention":4979,"Ġscooped":4980,"xture":4981,"ĠSpike":4982,"Ġhate":4983,"Ġmailman":4984,"Ġexamine":4985,"ĠMilly":4986,"Ġquiz":4987,"Ġcrunch":4988,"Ġwiz":4989,"Ġshed":4990,"ents":4991,"Ġencouraged":4992,"Ġtore":4993,"ĠKatie":4994,"Sp":4995,"osed":4996,"Ġmall":4997,"Ġitem":4998,"ops":4999,"Ġguy":5000,"Ġhers":5001,"Ġsimp":5002,"Ġrhy":5003,"Ġsparkles":5004,"nies":5005,"Ġautomobile":5006,"Ġdigg":5007,"ĠFro":5008,"Ġpulling":5009,"Ġspaces":5010,"Ġpoison":5011,"Ġdeeper":5012,"ĠZoe":5013,"Ġbuzzing":5014,"Ġchirping":5015,"Ġpalm":5016,"Ġflav":5017,"Ġscratch":5018,"Ġstruggling":5019,"antly":5020,"Ġbak":5021,"Ġlugg":5022,"ĠGood":5023,"Ġpanic":5024,"Ġachie":5025,"Ġpunish":5026,"Ġdigging":5027,"Ġfloated":5028,"Ġdare":5029,"To":5030,"ĠLuna":5031,"Ġsolved":5032,"ĠIs":5033,"Ġworse":5034,"Ġchores":5035,"ĠNut":5036,"Ġrestore":5037,"Ġmodel":5038,"Ġreceived":5039,"Ġluggage":5040,"Ġnone":5041,"Ġwhip":5042,"Ġsew":5043,"Ġbathrobe":5044,"Ġshooting":5045,"Ġweapon":5046,"anna":5047,"bey":5048,"asp":5049,"Ġwizard":5050,"Ġwarning":5051,"Ġprovide":5052,"ero":5053,"Ġtease":5054,"Ġbites":5055,"atch":5056,"Ġoranges":5057,"Ġfloating":5058,"Ġelephants":5059,"Ġrespons":5060,"Ġweeks":5061,"Ġbillboard":5062,"ging":5063,"These":5064,"Ġsty":5065,"Ġbricks":5066,"Ġapproached":5067,"Ġupstairs":5068,"Ġuniverse":5069,"Ġstomach":5070,"Ġdifference":5071,"Ġstad":5072,"Ġmeowed":5073,"Ġstadium":5074,"Mmm":5075,"Ġshot":5076,"osity":5077,"Ġsport":5078,"ctly":5079,"Ġsigns":5080,"Ġsprinkles":5081,"Ġbrings":5082,"Ġchamber":5083,"Ġdaisy":5084,"Ġsneezed":5085,"Ġtide":5086,"ÅĵNo":5087,"thm":5088,"Ġcollection":5089,"Ġmassage":5090,"Ġequ":5091,"ĠPenny":5092,"sity":5093,"Ġranch":5094,"Mummy":5095,"allen":5096,"allow":5097,"Ġinfant":5098,"fied":5099,"Ġhesit":5100,"Ġtwisted":5101,"iers":5102,"Ġsausage":5103,"Ġsupposed":5104,"Ġpatterns":5105,"Ġoper":5106,"Ġglo":5107,"Ġawe":5108,"Ġchallen":5109,"ĠKing":5110,"Ġinvit":5111,"cles":5112,"ĠSteve":5113,"Ġmister":5114,"Ġgrape":5115,"Ġsuffer":5116,"Ġparts":5117,"Ġmeasured":5118,"Ġemer":5119,"ude":5120,"Ġwatches":5121,"Ġdiscuss":5122,"Ġrhythm":5123,"Ġbang":5124,"Ġvehicle":5125,"Ġmarbles":5126,"Ġgrinned":5127,"Ġsip":5128,"Ġsetting":5129,"Ġgrey":5130,"Ġneighborhood":5131,"Ġpillows":5132,"Ġrepeat":5133,"Ġseats":5134,"igail":5135,"Ġfixing":5136,"bbles":5137,"Ġexercise":5138,"Ġheat":5139,"Ġevent":5140,"ls":5141,"Ġnation":5142,"ĠCat":5143,"Ġthrilled":5144,"Ġsore":5145,"Ġlick":5146,"Ġleak":5147,"emember":5148,"ĠJe":5149,"umble":5150,"Ġsoldiers":5151,"Ġgain":5152,"Ġlets":5153,"Ġunite":5154,"Ġmemory":5155,"Ġuniversity":5156,"Ġslice":5157,"Not":5158,"Ġfut":5159,"aspoon":5160,"Ġsunr":5161,"Ġfuture":5162,"shing":5163,"Ġmitten":5164,"Ġspoons":5165,"ĠSomeone":5166,"Ġmelted":5167,"ĠAbigail":5168,"Ġspit":5169,"do":5170,"Ġjazz":5171,"Ġcartoons":5172,"Ġspaceship":5173,"Ġours":5174,"Ġflood":5175,"Ġpaused":5176,"Ġremained":5177,"Ġactually":5178,"Ġproblems":5179,"ĠUnfortunately":5180,"Ġteaspoon":5181,"Ġglowed":5182,"Ġtour":5183,"Ġlily":5184,"Ġsurrounded":5185,"Ġurge":5186,"Would":5187,"Ġdiscovery":5188,"Ġairplane":5189,"!\",":5190,"Ġscreams":5191,"Ġinclud":5192,"ĠChirpy":5193,"Ġtracks":5194,"Ġearthqu":5195,"Ġcollecting":5196,"xy":5197,"Jimmy":5198,"eed":5199,"Ġdrinks":5200,"Ġsunrise":5201,"Ġbeg":5202,"ases":5203,"Ġjogging":5204,"Ġwherever":5205,"Ġpaints":5206,"Ġrust":5207,"Ġreceive":5208,"Ġlaid":5209,"Ġracing":5210,"Ġchewed":5211,"Ġsings":5212,"Ġgust":5213,"oved":5214,"Ġcakes":5215,"Ġsliding":5216,"Ġobserve":5217,"Ouch":5218,"Ġchir":5219,"Ġwond":5220,"Ġraised":5221,"Ready":5222,"!'":5223,"Ġstrang":5224,"Ġgirls":5225,"Ġrush":5226,"Ġburning":5227,"Ġordered":5228,"ĠNutty":5229,"Ġchirped":5230,"ĠNot":5231,"ĠSharing":5232,"Ġzipped":5233,"Ġpetted":5234,"Ġduring":5235,"Ġworks":5236,"bers":5237,"ĠMat":5238,"Ġtwigs":5239,"Ġspill":5240,"ĠSund":5241,"Ġpossible":5242,"Ġappear":5243,"Ġpigs":5244,"avid":5245,"Ġx":5246,"Ġscratched":5247,"cious":5248,"ishing":5249,"Ġcopper":5250,"Ġbeat":5251,"Ġpoppy":5252,"Ġtomatoes":5253,"Ġdecision":5254,"Bob":5255,"Ġcontain":5256,"Jill":5257,"Ġsafari":5258,"Ġcurled":5259,"Sh":5260,"Ġwatered":5261,"Ġcrunchy":5262,"Ġscur":5263,"Ġwhistled":5264,"Ġoperation":5265,"ĠJam":5266,"Ġattached":5267,"Ġwhistling":5268,"Yum":5269,"Ġkindly":5270,"Ġsatis":5271,"Ġlands":5272,"Ġsunlight":5273,"Ġmarching":5274,"ÅĵIÃ¢":5275,"zag":5276,"Ġbeds":5277,"ĠUncle":5278,"Ġvel":5279,"ÅĵThatÃ¢":5280,"Ġmanage":5281,"Ġdrinking":5282,"Ġgrocery":5283,"Ġpeanuts":5284,"Ġstrangers":5285,"Ġmouths":5286,"ĠRemy":5287,"Ġfed":5288,"fy":5289,"Ġglitter":5290,"mother":5291,"ities":5292,"etch":5293,"Ġprepared":5294,"Ġpotatoes":5295,"Ġcrashed":5296,"Ġvelvet":5297,"Ġfasc":5298,"walk":5299,"ĠSunny":5300,"Really":5301,"Ġprayed":5302,"Ġcontinue":5303,"Ġescaped":5304,"Ġhurric":5305,"Ġgaz":5306,"Ġdoggy":5307,"Ġwisdom":5308,"Ġnavy":5309,"Ġmenu":5310,"Will":5311,"Ġconf":5312,"Ġolive":5313,"ĠDavid":5314,"Ġmountains":5315,"Ġeff":5316,"Ġwarn":5317,"Ġinvitation":5318,"ĠOl":5319,"igzag":5320,"Ġtoe":5321,"Ġstrip":5322,"Ġpupp":5323,"Ġclearing":5324,"Ġremem":5325,"Ġadmiring":5326,"Ġmeow":5327,"ipment":5328,"Ġremembers":5329,"Ġbes":5330,"Ġwaits":5331,"Ġsidewalk":5332,"Ġprice":5333,"anny":5334,"Ġbrid":5335,"Ġtalent":5336,"Ġequipment":5337,"Ġearthquake":5338,"Ġcomfy":5339,"Ġhated":5340,"ĠChr":5341,"Ġfolded":5342,"Ġfireworks":5343,"son":5344,"hest":5345,"Ġnetwork":5346,"rs":5347,"Ġwonders":5348,"ĠBeth":5349,"Ġturning":5350,"Ġlips":5351,"Ġdisagreed":5352,"Ġhurricane":5353,"bbled":5354,"Ġswims":5355,"Ġcircus":5356,"Ġflap":5357,"Ġrecognized":5358,"\",":5359,"ĠJan":5360,"Ġleather":5361,"ĠLetÃ¢":5362,"Ġbones":5363,"aded":5364,"Ġfascin":5365,"ĠMoral":5366,"Ġwre":5367,"Ġgotten":5368,"Ġskipping":5369,"Ġeasier":5370,"Ġselling":5371,"Ġmeasuring":5372,"Ġonwards":5373,"Ġbridges":5374,"Al":5375,"Ġbye":5376,"Ġwaffles":5377,"Ġslip":5378,"Ġrevealed":5379,"Ġbleeding":5380,"ĠSadly":5381,"Ġsix":5382,"ÅĵThank":5383,"Ġbuildings":5384,"Ġhist":5385,"Ġapologize":5386,"ĠFrank":5387,"Ġrefreshed":5388,"Ġlect":5389,"Ġtremb":5390,"Ġbowed":5391,"Ġplanted":5392,"Ġprune":5393,"Ġobey":5394,"Ġmuddy":5395,"Ġbrick":5396,"Ġhistory":5397,"Ġpitch":5398,"seek":5399,"ffic":5400,"Ġcompany":5401,"Ġcuddle":5402,"Ġbeside":5403,"Ġweight":5404,"ĠRa":5405,"Ġsecrets":5406,"ĠQu":5407,"Ġacorns":5408,"ĠSunday":5409,"Ġwanting":5410,"Ġladyb":5411,"Ġlecture":5412,"Ġgloves":5413,"Ġblueberry":5414,"Ġpeered":5415,"Ġwid":5416,"ÅĵWe":5417,"amb":5418,"Ġallow":5419,"Ġprecious":5420,"Ġsettle":5421,"Ġsimple":5422,"Ġofficer":5423,"Ġtraffic":5424,"Ġrested":5425,"ĠSomething":5426,"ĠPr":5427,"Ġserved":5428,"Ġbrand":5429,"Ġwooden":5430,"ĠAn":5431,"Ġprinter":5432,"Ġstripes":5433,"cc":5434,"loe":5435,"Ġkeeper":5436,"Ġhappiest":5437,"ĠAnne":5438,"Ġhurried":5439,"Ġeveryday":5440,"Ġtrapped":5441,"Ġsnowball":5442,"joyed":5443,"Ġpets":5444,"Ġmineral":5445,"Ġoverjoyed":5446,"Ġfreeze":5447,"Ġrang":5448,"Ġmonsters":5449,"Ġvillag":5450,"Ġwhatever":5451,"Ġguessed":5452,"Ġgained":5453,"ĠBy":5454,"Ġcrept":5455,"Ġsteel":5456,"Ġreminder":5457,"Ġimage":5458,"Ġdinosaurs":5459,"Ġsucceeded":5460,"Ġfirefight":5461,"Spot":5462,"ĠKe":5463,"Ġcal":5464,"Ġrained":5465,"Ġanytime":5466,"Ġpedal":5467,"Ġchat":5468,"Ġeffort":5469,"Ġwaist":5470,"Ġweren":5471,"Ġeats":5472,"Ġcutting":5473,"ĠChloe":5474,"Ġstealing":5475,"Ġstyle":5476,"ĠSuzy":5477,"Ġpies":5478,"Ġwrites":5479,"Ġcomforted":5480,"Ġtip":5481,"Ġbringing":5482,"Ġeagle":5483,"ĠSure":5484,"enty":5485,"Ġanswers":5486,"ley":5487,"Ġripped":5488,"Ġcatching":5489,"Ġdoctors":5490,"ĠBig":5491,"Ġsoared":5492,"ĠTiny":5493,"Ġdrag":5494,"Ġfashion":5495,"She":5496,"ishes":5497,"Ġzigzag":5498,"Ġvisiting":5499,"Ġoats":5500,"Ġshadows":5501,"ien":5502,"Ġvillagers":5503,"mble":5504,"ĠJamie":5505,"ĠLucky":5506,"Ġcostumes":5507,"Ġchef":5508,"Ġvoices":5509,"Ġscoop":5510,"Ġowned":5511,"Ġpermit":5512,"Ġmice":5513,"Ġresponsible":5514,"Ġcuriosity":5515,"Ġaccom":5516,"ĠCoco":5517,"ĠAm":5518,"Ġbun":5519,"mare":5520,"ĠThese":5521,"Ġexa":5522,"ĠSl":5523,"Ġstruggled":5524,"Or":5525,"ĠJosh":5526,"Ġbrushed":5527,"nie":5528,"izing":5529,"ĠSpark":5530,"Ġbreaking":5531,"Ġtastes":5532,"Ġtwirling":5533,"Ġdisturbed":5534,"Ġtremble":5535,"Ġperched":5536,"Ġolives":5537,"ĠJulie":5538,"icorn":5539,"Ġunicorn":5540,"iggy":5541,"Ġkeys":5542,"Ġpracticing":5543,"Ġpupil":5544,"Ġcreation":5545,"Ġgrandmother":5546,"Ġshopping":5547,"neath":5548,"Ġdownstairs":5549,"anta":5550,"Ġdecorated":5551,"Ġagreement":5552,"Ġrealize":5553,"Ġnightmare":5554,"Ġcontro":5555,"Ġlandsc":5556,"Ġbeneath":5557,"Ġrides":5558,"Ġpadd":5559,"Ġaccompl":5560,"Billy":5561,"terday":5562,"ding":5563,"Ġfamil":5564,"Ġactiv":5565,"Ġexamined":5566,"ĠTilly":5567,"Ġsadness":5568,"Ġaccidents":5569,"Ġarea":5570,"Ġdied":5571,"Ġvict":5572,"ira":5573,"Ġkeeps":5574,"Ġbend":5575,"Ġrele":5576,"len":5577,"ĠAd":5578,"Ġsneaked":5579,"Ġsiren":5580,"Ġbegin":5581,"Ġpeel":5582,"Ġrecognize":5583,"va":5584,"Ġpancakes":5585,"Ġnails":5586,"Ġoutdo":5587,"ĠPip":5588,"ĠLul":5589,"ĠLike":5590,"oming":5591,"Ġemergen":5592,"Ġladybug":5593,"Ġsting":5594,"Ġago":5595,"Ġslapped":5596,"Ġtugged":5597,"Ġsoak":5598,"Ġruin":5599,"Ġpearl":5600,"ĠRob":5601,"Ġencourage":5602,"Ġlandscape":5603,"Ġwagging":5604,"Ġsitu":5605,"Ġspiders":5606,"ales":5607,"Ġargued":5608,"isten":5609,"Ġmission":5610,"Ġtickets":5611,"ib":5612,"Ġstitch":5613,"Ġweighed":5614,"ĠFor":5615,"Ġshivering":5616,"Ġinstruct":5617,"Ġnicer":5618,"Ġknelt":5619,"ĠKay":5620,"Daddy":5621,"Ġbare":5622,"Ġwondering":5623,"ĠFloppy":5624,"Ġzooming":5625,"Gra":5626,"ĠSanta":5627,"ÅĵDon":5628,"Ġcomple":5629,"Ġclaps":5630,"gers":5631,"Ġcaut":5632,"xygen":5633,"Ġwreck":5634,"Ġexactly":5635,"Ġexit":5636,"ĠStop":5637,"owers":5638,"Ġunderground":5639,"ĠCar":5640,"ÅĵCan":5641,"Ġzero":5642,"Ġwinning":5643,"Ġitems":5644,"Ġdraws":5645,"Ġfiremen":5646,"Ġstretching":5647,"Ġunlocked":5648,"Ġbunnies":5649,"Ġplanned":5650,"Ġpastel":5651,"Ġstudied":5652,"Ġsatisfied":5653,"Ġcape":5654,"Ġdecides":5655,"Ġshoulders":5656,"ĠBubbles":5657,"Ġcontrol":5658,"Ġpiles":5659,"annah":5660,"ik":5661,"Ġjogged":5662,"Ġgathering":5663,"Ġsnail":5664,"Ġpockets":5665,"Ġfetch":5666,"Ġsisters":5667,"looking":5668,"Ġlines":5669,"Ġdent":5670,"ĠBir":5671,"bbing":5672,"Ye":5673,"Ġsupplies":5674,"Ġchallenge":5675,"Ġeight":5676,"ĠMad":5677,"Goodbye":5678,".'":5679,"Ġunderneath":5680,"Ġcones":5681,"Ġtune":5682,"Ġpinched":5683,"Ġfascinated":5684,"Ġinstructions":5685,"inda":5686,"aky":5687,"ĠCla":5688,"ĠCarl":5689,"Ġyelling":5690,"Ġsolut":5691,"Ġloaded":5692,"Ġrelease":5693,"Ġloving":5694,"Ġbeha":5695,"Ġproperly":5696,"ĠNina":5697,"Ġbuckets":5698,"ica":5699,"Ġmixing":5700,"ĠLu":5701,"riage":5702,"Ġstirring":5703,"Ġlemons":5704,"ĠRabbit":5705,"ĠLulu":5706,"Ġneighbors":5707,"Ġhonk":5708,"Ġloose":5709,"Ġdeser":5710,"bies":5711,"ĠHoppy":5712,"Ġann":5713,"Ġparked":5714,"ĠSusan":5715,"ĠThom":5716,"Ġbaked":5717,"Ġoutdoors":5718,"thank":5719,"ĠBetty":5720,"ĠJessie":5721,"Ġdam":5722,"ashed":5723,"Ġteasing":5724,"Ġsoaring":5725,"ĠletÃ¢":5726,"Ġfrosting":5727,"Ġmuscles":5728,"Ġburrow":5729,"Ġbroom":5730,"Ġmachines":5731,"Ġpunished":5732,"Ġweb":5733,"Ġbrushes":5734,"ex":5735,"Ġtouching":5736,"Ġmarks":5737,"Happy":5738,"Ġincrease":5739,"Ġdrift":5740,"ĠMart":5741,"ĠAfterwards":5742,"Ġruler":5743,"Ġguns":5744,"Ġcompetition":5745,"Little":5746,"oh":5747,"Ġtonight":5748,"Ġourselves":5749,"Ġhorns":5750,"ÅĵLook":5751,"Ġbabies":5752,"ury":5753,"ĠDid":5754,"Ġstair":5755,"Ġintroduc":5756,"Ġsoaked":5757,"agull":5758,"Ġfoods":5759,"Ġprinted":5760,"Ġprunes":5761,"Ġreleased":5762,"ĠClaire":5763,"Ġoxygen":5764,"imy":5765,"Ġneighbourhood":5766,"Ġtravell":5767,"oed":5768,"Ġpoking":5769,"Ġbudge":5770,"Ġopin":5771,"Ġsweeties":5772,"Ġemergency":5773,"Ġdrives":5774,"Ġrubbing":5775,"die":5776,"Ġmittens":5777,"Ġpurred":5778,"Ġprotected":5779,"Ġdragons":5780,"zen":5781,"Ġ1":5782,"Ġsides":5783,"Ġlied":5784,"jam":5785,"Ġstrings":5786,"Ġmuffins":5787,"Ġseagull":5788,"Ġmentioned":5789,"Ġtim":5790,"Ġinch":5791,"ĠItÃ¢":5792,"Ġvictory":5793,"Ġgiggling":5794,"Ġsights":5795,"ÅĵThis":5796,"Ġproject":5797,"Ġbunch":5798,"ĠHop":5799,"Ex":5800,"ux":5801,"ĠGr":5802,"Ġrainbows":5803,"Ġtickle":5804,"Ġchases":5805,"Ġdragged":5806,"Ġplanets":5807,"Ġsteep":5808,"nes":5809,"ĠHa":5810,"indy":5811,"Ġwinner":5812,"ĠThomas":5813,"bric":5814,"Ġfabric":5815,"Ġbeard":5816,"Ġstudying":5817,"âĤ¬âĢĿ":5818,"kins":5819,"Ġsighs":5820,"Ġpears":5821,"Ġpeaches":5822,"Ġstruck":5823,"ĠOut":5824,"Ġintroduce":5825,"ais":5826,"ednes":5827,"Ġvowed":5828,"Ġmovies":5829,"Ġlux":5830,"Ġdemanded":5831,"Ġguys":5832,"icked":5833,"Ġgrant":5834,"Ġsilence":5835,"uctantly":5836,"Ah":5837,"Ġpouring":5838,"Ġscurried":5839,"ĠLou":5840,"Ġbarely":5841,"Ġmast":5842,"Ġeast":5843,"Ġurged":5844,"Ġstole":5845,"ĠJeff":5846,"ĠWednes":5847,"Ġsurface":5848,"ĠHannah":5849,"ĠTues":5850,"ĠMil":5851,"Ġpretti":5852,"Ġcrumb":5853,"Ġfrozen":5854,"Ġprettiest":5855,"Ġbouncy":5856,"Ġrepeated":5857,"Ġcuts":5858,"Ġbank":5859,"ĠBoth":5860,"Ġbottles":5861,"Ġsausages":5862,"Ġherbs":5863,"Ġsorted":5864,"Ġcrowd":5865,"Ġvent":5866,"Ġprints":5867,"Ġtexture":5868,"ÅĵHello":5869,"hins":5870,"Ġwest":5871,"edding":5872,"ĠAbby":5873,"icky":5874,"Ġresult":5875,"Ġslimy":5876,"Ġconfident":5877,"Ġcatches":5878,"Ġpout":5879,"ledge":5880,"Ġkicking":5881,"Ġseason":5882,"Ġcamping":5883,"Ġapplauded":5884,"ĠSlow":5885,"ern":5886,"Ġcompleted":5887,"Ġsorting":5888,"Ġbloomed":5889,"ĠJu":5890,"ateri":5891,"Ġacted":5892,"Ġpoliceman":5893,"Ġti":5894,"Ġmateri":5895,"Ġscreaming":5896,"Ġexpect":5897,"Ġcurly":5898,"Ġshock":5899,"Ġribbons":5900,"Ġgoals":5901,"Ġroaring":5902,"Ġchips":5903,"Ġknowledge":5904,"Ġsinger":5905,"Ġshelves":5906,"Ġrocked":5907,"Ġpretends":5908,"rrrr":5909,"Ġgazed":5910,"though":5911,"Ġdiscovering":5912,"Ġreluctantly":5913,"Ġcautious":5914,"Ġchewing":5915,"ÅĵDonÃ¢":5916,"Remember":5917,"Ġthreat":5918,"ĠPipp":5919,"Ġforgi":5920,"Ġhighest":5921,"Ġstrike":5922,"Ġpebbles":5923,"Ġpowers":5924,"ĠMatt":5925,"Ġwound":5926,"Ġge":5927,"Ġpatience":5928,"Ġinterest":5929,"Ġtwinkling":5930,"ĠJones":5931,"Ġstamps":5932,"Ġgoodnight":5933,"avi":5934,"ĠAdam":5935,"ĠYes":5936,"Ġcontest":5937,"Ġmatched":5938,"Ġentire":5939,"esome":5940,"Ġsolution":5941,"fit":5942,"Ġdusty":5943,"Ġinclude":5944,"exp":5945,"ĠLinda":5946,"Ġshivered":5947,"Ġhugging":5948,"ĠZoom":5949,"Ġdolphins":5950,"ĠAunt":5951,"Ġmarkers":5952,"Ġflat":5953,"Ġcurtains":5954,"Ġdisagree":5955,"ason":5956,"Ġimportance":5957,"Ġsituation":5958,"ĠAlways":5959,"Ġoutfit":5960,"Ġpenguins":5961,"Ġhomework":5962,"Ġgrowl":5963,"Ġblink":5964,"Ġzookeeper":5965,"expected":5966,"Ġyouth":5967,"ĠMomo":5968,"ÅĵOh":5969,"Ġuses":5970,"Ġguest":5971,"Ġflags":5972,"bert":5973,"Ġsafer":5974,"Ġachieve":5975,"Uh":5976,"ivery":5977,"Ġmarriage":5978,"Ġrecorded":5979,"Ġtheirs":5980,"Ġsticking":5981,"Ġroads":5982,"ĠWednesday":5983,"Ġshined":5984,"Ġagrees":5985,"ĠKayla":5986,"Somet":5987,"Ġfault":5988,"Ġmatching":5989,"Ġawesome":5990,"zie":5991,"Ġsnugg":5992,"Ġrescued":5993,"cuse":5994,"jamas":5995,"Ġunexpected":5996,"Ġwaiter":5997,"Ġlibrarian":5998,"Ġast":5999,"Ġlearns":6000,"Ġpassing":6001,"Ġstaring":6002,"eezing":6003,"bl":6004,"usted":6005,"Ġfigured":6006,"Ġluxury":6007,"njoy":6008,"Ġrobb":6009,"Ġbalancing":6010,"you":6011,"ora":6012,"ĠEx":6013,"Ġmotion":6014,"Ġwedding":6015,"irts":6016,"ĠJenna":6017,"Ġspraying":6018,"Yeah":6019,"Ġintroduced":6020,"vin":6021,"Ġdentist":6022,"ĠTuesday":6023,"Ġlap":6024,"ÅĵWhy":6025,"ĠY":6026,"Ġplenty":6027,"Ġworker":6028,"Ġcheering":6029,"Excuse":6030,"ĠJon":6031,"acob":6032,"Ġreaching":6033,"Ġsnakes":6034,"Ġtowels":6035,"Ġdelivery":6036,"Ġstare":6037,"Ġexha":6038,"Ġwritten":6039,"Ġarrive":6040,"Ġsway":6041,"Ġscra":6042,"Ġradishes":6043,"uly":6044,"ĠcanÃ¢":6045,"Ġsuitc":6046,"Ġwink":6047,"Ġheel":6048,"ena":6049,"Ġblooming":6050,"Ġflavor":6051,"ĠDolly":6052,"Ġexpected":6053,"izzie":6054,"Ġdirection":6055,"ĠSlowly":6056,"ĠBye":6057,"une":6058,"Ġtruly":6059,"Ġslap":6060,"Ġprincesses":6061,"ids":6062,"immer":6063,"Ġbravery":6064,"Ġtractor":6065,"iar":6066,"ĠMira":6067,"Ġsweets":6068,"When":6069,"Ġcaused":6070,"Ġbead":6071,"Ġpatted":6072,"Ġpajamas":6073,"Ġthro":6074,"Ġgreet":6075,"Ġrolls":6076,"Ġreplac":6077,"Ġprayer":6078,"...":6079,"Ġkneeled":6080,"Ġthroat":6081,"itely":6082,"ĠTess":6083,"Ġstorekeeper":6084,"Ġgrowling":6085,"Ġfart":6086,"Ġrocking":6087,"Ġowners":6088,"oys":6089,"Ġcompletely":6090,"Ġtraveled":6091,"ĠChrist":6092,"Ġtrembling":6093,"ĠJacob":6094,"Ġusual":6095,"ults":6096,"Ġregretted":6097,"Ch":6098,"Ġroots":6099,"Ġpacking":6100,"Ġlamb":6101,"Ġobserved":6102,"Ġfir":6103,"iding":6104,"ĠLizzy":6105,"Ġvanish":6106,"Ġexhausted":6107,"Ġdared":6108,"ĠJessica":6109,"Today":6110,"ĠLuke":6111,"mas":6112,"Ġbelly":6113,"Ġremote":6114,"Ġmane":6115,"ĠPinky":6116,"Ġworkers":6117,"Just":6118,"Ġheav":6119,"ĠLizzie":6120,"Ġseems":6121,"Ġquacked":6122,"ĠyouÃ¢":6123,"Ġcrabs":6124,"Ġincluded":6125,"ences":6126,"Ġargu":6127,"Ġscales":6128,"Ġpaintings":6129,"Ġstern":6130,"Ġremoved":6131,"Ġrockets":6132,"ĠLeave":6133,"Ġcrackers":6134,"Ġwires":6135,"ĠBess":6136,"hello":6137,"Ġorganizing":6138,"Ġbaker":6139,"Ġfirm":6140,"Ġarguing":6141,"Ġranger":6142,"Ġunited":6143,"Ġcloses":6144,"Ġcreating":6145,"asm":6146,"Ġcomm":6147,"ĠJohnson":6148,"Ġresting":6149,"hell":6150,"Ġboom":6151,"Ġstartled":6152,"Ġopening":6153,"Ġmisses":6154,"ĠMon":6155,"Ġleap":6156,"Ġflames":6157,"Ġsled":6158,"Ġwandering":6159,"Ġchuck":6160,"Ġpartic":6161,"Ġhealed":6162,"Ġknights":6163,"Ġstruggle":6164,"ĠJulia":6165,"Ġreveal":6166,"opes":6167,"angled":6168,"ĠChristmas":6169,"go":6170,"ĠMo":6171,"Ġrubs":6172,"Ġtimer":6173,"Ġventured":6174,"vers":6175,"Ġleader":6176,"lee":6177,"Ġworries":6178,"Ġpencils":6179,"aze":6180,"Ġden":6181,"Ġinviting":6182,"Ġcrumbs":6183,"Ġseesaw":6184,"Ro":6185,"ĠwasnÃ¢":6186,"Ġboo":6187,"Ġwasted":6188,"Ġrisk":6189,"ĠCindy":6190,"Ġdesert":6191,"Ġlollipops":6192,"Ġitchy":6193,"ĠHappy":6194,"dies":6195,"Fine":6196,"Ġcent":6197,"oline":6198,"Ġrelief":6199,"ĠFollow":6200,"ctions":6201,"Ġfairies":6202,"Ġpastries":6203,"Ġreply":6204,"ĠQuack":6205,"ĠBo":6206,"ĠJazz":6207,"Ġmasks":6208,"Ġbalanced":6209,"Ġwinked":6210,"ĠBeing":6211,"Ġcountryside":6212,"Ġcott":6213,"ĠBuzzy":6214,"Ġscru":6215,"Ġtrips":6216,"Ġfuzzy":6217,"ĠMel":6218,"Ġdarkness":6219,"aisies":6220,"Ġmelting":6221,"Then":6222,"Ġwow":6223,"Ġlogs":6224,"ĠFriend":6225,"Ġunf":6226,"Ġpots":6227,"Ġaccomplish":6228,"Sometimes":6229,"Ġusually":6230,"ĠDoggy":6231,"Ġpolished":6232,"Ġpolishing":6233,"Ġhelmets":6234,"Ġsneaky":6235,"Bad":6236,"ĠTwo":6237,"Ġpeeking":6238,"Ġactivities":6239,"Ġdaisies":6240,"Ġcans":6241,"ĠPut":6242,"Ġvalued":6243,"Ġbeads":6244,"ĠSuzie":6245,"Ġtwinkle":6246,"ĠTara":6247,"Ġgaze":6248,"Ġparticular":6249,"Ġhowever":6250,"Ġcracked":6251,"Ġsigned":6252,"Ġpaddled":6253,"Ġfara":6254,"Ġsnat":6255,"ĠChe":6256,"Ġinterested":6257,"Ġfaraway":6258,"ĠSorry":6259,"Ġbecoming":6260,"Ġnaps":6261,"Ġbumpy":6262,"Ġrings":6263,"Ġstem":6264,"ĠMany":6265,"ĠEl":6266,"Ġeverybody":6267,"boat":6268,"Ġsilent":6269,"Ġsnowballs":6270,"Ġcause":6271,"Ġcough":6272,"Ġslam":6273,"Ġsingle":6274,"Ġcoloured":6275,"Ġwrist":6276,"ĠRobby":6277,"Ġsandcastles":6278,"Ġyounger":6279,"Ġhissed":6280,"Ġspike":6281,"ĠEnjoy":6282,"Ġconn":6283,"ĠMilo":6284,"ĠPandy":6285,"ĠOw":6286,"Ġdipped":6287,"Ġseven":6288,"Ġfreed":6289,"Ġswirl":6290,"Ġphotos":6291,"Ġrestored":6292,"Ġteaches":6293,"Ġpastels":6294,"Ġlined":6295,"Ġcopy":6296,"Ġwiggled":6297,"Ġreplaced":6298,"igi":6299,"Ġforehead":6300,"Ġopinion":6301,"ĠWatch":6302,"Ġswooped":6303,"Ġblows":6304,"pite":6305,"Ġhi":6306,"Ġsobbed":6307,"Ġstaying":6308,"Ġsuitcase":6309,"ĠMick":6310,"Ġbakery":6311,"Ġfirefighters":6312,"iki":6313,"Ġcautiously":6314,"Ġtipt":6315,"Ġcous":6316,"Ġsplashes":6317,"Ġdirections":6318,"ĠEverybody":6319,"ÅĵMommy":6320,"ĠOlive":6321,"ĠDays":6322,"ĠNothing":6323,"ĠBird":6324,"Ġprovided":6325,"ĠFox":6326,"Ġcash":6327,"Ġlung":6328,"Ġwears":6329,"Ġfilling":6330,"Ġsweat":6331,"ĠLarry":6332,"ĠExc":6333,"Ġchuckled":6334,"rance":6335,"Ġfaced":6336,"Ġtallest":6337,"Ġawake":6338,"Ëľ":6339,"âĤ¬Ëľ":6340,"Ġbowls":6341,"Ġtickled":6342,"Ġcovers":6343,"Ġexplorers":6344,"Ġyesterday":6345,"Ġyourselves":6346,"brush":6347,"Ġaff":6348,"Ġsense":6349,"Ġpiggy":6350,"itches":6351,"ĠKeep":6352,"Ġtricked":6353,"Ġnect":6354,"Ġscarves":6355,"Ġnectar":6356,"Ġmarked":6357,"Ġglasses":6358,"ĠExcited":6359,"Ġstays":6360,"Ġtwin":6361,"Ġpleasure":6362,"Ġseashell":6363,"Ġcolored":6364,"Ġdetermination":6365,"ĠMartha":6366,"bbly":6367,"Ġattack":6368,"ĠWithout":6369,"Ġknocks":6370,"Ġpoems":6371,"Ġcalmed":6372,"Run":6373,"hile":6374,"arter":6375,"Ġdeal":6376,"Ġlighter":6377,"Ġhider":6378,"Ġactions":6379,"Ġkicks":6380,"Ġseeker":6381,"Ġadding":6382,"Ġrefle":6383,"Ġmagnets":6384,"Ġsquealed":6385,"ords":6386,"Ġripe":6387,"Ġjoking":6388,"ĠFinn":6389,"Ġrecording":6390,"Ġroses":6391,"ĠGigi":6392,"Ġcandies":6393,"mies":6394,"ĠSque":6395,"Ġstroll":6396,"Ġfluttered":6397,"Ġbadge":6398,"Ġbumps":6399,"boo":6400,"Ġty":6401,"Ġsmarter":6402,"Ġbacked":6403,"ÅĵWhatÃ¢":6404,"Ġlistens":6405,"Ġbuying":6406,"Ġmarker":6407,"ĠMikey":6408,"Ġpedals":6409,"Ġprotecting":6410,"Ġgroceries":6411,"Ġbars":6412,"Ġhealth":6413,"affes":6414,"Ġknees":6415,"Ġstolen":6416,"iles":6417,"Ġsomebody":6418,"Ġreads":6419,"Ġsecure":6420,"Ġgiraffes":6421,"Ġfarther":6422,"ĠEls":6423,"Ġdarker":6424,"Ġcelebration":6425,"ĠLau":6426,"ddled":6427,"ĠGet":6428,"ĠEmmy":6429,"ners":6430,"Ġdots":6431,"ĠEarth":6432,"Ġinsects":6433,"urry":6434,"Ġpause":6435,"ppers":6436,"Ġliqu":6437,"Ġfroze":6438,"Ġentrance":6439,"Ġtricky":6440,"ĠMaya":6441,"Ġcomplaining":6442,"Ġpouted":6443,"Those":6444,"Ġclowns":6445,"ĠAsh":6446,"Ġvideos":6447,"ĠPrin":6448,"Ġthorn":6449,"ĠAbbie":6450,"ĠDr":6451,"Ġparties":6452,"Ġwipes":6453,"Ġmi":6454,"Ġrule":6455,"Ġtalented":6456,"Ġbeginning":6457,"Ġglee":6458,"Ġchoo":6459,"coat":6460,"hee":6461,"ĠBinky":6462,"Ġsmiley":6463,"Ġsnatched":6464,"Ġmixture":6465,"Ġopp":6466,"Ġmiles":6467,"ility":6468,"Ġbehavi":6469,"Ġcowb":6470,"ĠRover":6471,"Ġcubes":6472,"Ġkites":6473,"Ġhandful":6474,"Ġpaying":6475,"Rex":6476,"abel":6477,"Ġinstrum":6478,"rig":6479,"tle":6480,"yond":6481,"Ġbeyond":6482,"Ġnoon":6483,"Ġsalty":6484,"Grandma":6485,"Ġcashier":6486,"Ġmes":6487,"arling":6488,"Ġinsp":6489,"Ġsteer":6490,"Ġmesmer":6491,"rious":6492,"Ġclick":6493,"ĠLaura":6494,"band":6495,"ĠNan":6496,"Ġraincoat":6497,"Ġspeaking":6498,"Ġtasks":6499,"Ġweeping":6500,"Ġtangled":6501,"ĠLena":6502,"ĠPl":6503,"Ġdelivered":6504,"Ġrusty":6505,"bell":6506,"iled":6507,"ĠWater":6508,"aren":6509,"igers":6510,"indr":6511,"Ġfamilies":6512,"cope":6513,"ossible":6514,"Ġwins":6515,"Ġimpossible":6516,"ths":6517,"Ġafterwards":6518,"Ġsnowmen":6519,"Ġarrows":6520,"Ġwidened":6521,"Ġlower":6522,"choo":6523,"Ġraindr":6524,"ĠSophia":6525,"tuce":6526,"Ġlettuce":6527,"Ġgems":6528,"Ġimproved":6529,"uzz":6530,"ĠSw":6531,"ormed":6532,"ĠPo":6533,"Ġacting":6534,"Ġfolding":6535,"Ġdrums":6536,"Ġstroked":6537,"Ġliquid":6538,"ouch":6539,"ĠBluey":6540,"Ġbatteries":6541,"Ġrecommended":6542,"alph":6543,"?\",":6544,"Ġteased":6545,"ĠKiki":6546,"Ġcheeks":6547,"ĠSadie":6548,"Ġchefs":6549,"?'":6550,"ĠPam":6551,"Ġyells":6552,"Ġcupcakes":6553,"ĠPrincess":6554,"Next":6555,"Ġneedles":6556,"Ġsailboat":6557,"Ġshirts":6558,"sequ":6559,"ĠNick":6560,"Ġchoices":6561,"Ġobjects":6562,"ĠSqu":6563,"anes":6564,"Ġruining":6565,"Ġmushrooms":6566,"Ġhesitated":6567,"ĠBee":6568,"Ġpassen":6569,"Ġdiving":6570,"Ġscaring":6571,"ivity":6572,"Ġjackets":6573,"Ġconsequ":6574,"ĠRobert":6575,"Ġornaments":6576,"itched":6577,"Ġcust":6578,"Ġwee":6579,"ĠCu":6580,"ĠJune":6581,"Ġsnuck":6582,"Ġbedtime":6583,"Ġsquares":6584,"Ġcomplained":6585,"no":6586,"Ġcreamy":6587,"Ġastron":6588,"Ġrumble":6589,"Ġfever":6590,"Ġscrews":6591,"Ġminerals":6592,"Ġscrubbed":6593,"cers":6594,"Ġrip":6595,"Ġgrabbing":6596,"Ġleading":6597,"Ġcreativity":6598,"Ġwrapping":6599,"ĠZip":6600,"ĠGoodbye":6601,"Ġtigers":6602,"atul":6603,"sty":6604,"ĠJay":6605,"umbling":6606,"Ġcelebrating":6607,"Ġbehaved":6608,"rigued":6609,"ĠFar":6610,"ĠwouldnÃ¢":6611,"Ġindeed":6612,"Ġpaddle":6613,"Ġachieved":6614,"Shh":6615,"Ġswimsuit":6616,"Ġraindrops":6617,"Ġcustom":6618,"endy":6619,"Ġfears":6620,"step":6621,"Ġbasement":6622,"Ġsibl":6623,"Ġastronaut":6624,"Ġsiblings":6625,"mallow":6626,"Ġscratches":6627,"arshmallow":6628,"Ġstomped":6629,"Ġaccomplishment":6630,"Ġnoses":6631,"ĠCra":6632,"Ġlosing":6633,"ept":6634,"Ġpointy":6635,"Ġdeserve":6636,"Ġconsequences":6637,"ky":6638,"Ġpuppies":6639,"ĠSparky":6640,"Ġannoy":6641,"Great":6642,"Ġthird":6643,"Ġneither":6644,"ÅĵDo":6645,"ans":6646,"Ġbeam":6647,"Ġstung":6648,"Ġchop":6649,"Ġdollhouse":6650,"Ġexperien":6651,"Ġburst":6652,"ĠAbi":6653,"Ġfluttering":6654,"ne":6655,"Ġcor":6656,"Ġbackwards":6657,"ĠJacky":6658,"Ġhus":6659,"ĠSc":6660,"Ġflapping":6661,"Ġtempt":6662,"Ġdrifted":6663,"Ġtiptoed":6664,"cl":6665,"vest":6666,"Ġlun":6667,"Ġswept":6668,"Ġdef":6669,"ĠTodd":6670,"Ġwraps":6671,"Ġhallway":6672,"Ġtravelled":6673,"Ġyum":6674,"Ġhides":6675,"Ġsource":6676,"Ġavoid":6677,"Ġtemper":6678,"Ġdads":6679,"ĠThanks":6680,"Ġpans":6681,"ded":6682,"igning":6683,"ĠwonÃ¢":6684,"ndpare":6685,"ĠHoot":6686,"Ġhearing":6687,"ĠKaren":6688,"ĠMa":6689,"anging":6690,"Ġpeacefully":6691,"Ġsunflowers":6692,"Ġartist":6693,"Le":6694,"Ġlimes":6695,"Ġaren":6696,"Ġsale":6697,"Ġplayers":6698,"ĠDuring":6699,"Ġmaterials":6700,"oey":6701,"Ġgrandpare":6702,"Ġtramp":6703,"Ġsquish":6704,"Ġpromises":6705,"Ġforgets":6706,"Ġgracefully":6707,"ĠRobbie":6708,"ĠQ":6709,"Ġech":6710,"Ġache":6711,"Meow":6712,"ĠBessie":6713,"int":6714,"Ġmarshmallow":6715,"itted":6716,"Ġdances":6717,"Roar":6718,"Ġgross":6719,"atur":6720,"ÅĵWow":6721,"Ġbeloved":6722,"Ġrivers":6723,"ĠSnugg":6724,"Ġperformance":6725,"Ġunpacked":6726,"oni":6727,"aker":6728,"Ġcuddly":6729,"Ġsprinkled":6730,"Ġdamage":6731,"uing":6732,"kend":6733,"ÅĵCome":6734,"Ġgrowls":6735,"immering":6736,"Ġtrampoline":6737,"ĠSun":6738,"ÅĵHi":6739,"Ġpresses":6740,"Ġhusband":6741,"ĠAlthough":6742,"ĠZoey":6743,"ÅĵYouÃ¢":6744,"Ġweekend":6745,"Have":6746,"cus":6747,"Ġwilling":6748,"Ġhandsome":6749,"Ġsnowfl":6750,"ĠAlong":6751,"Ġslammed":6752,"Jane":6753,"Ġdarling":6754,"ĠSim":6755,"Ġrefu":6756,"ueen":6757,"ĠGina":6758,"Ew":6759,"Ġrising":6760,"ades":6761,"ĠMabel":6762,"Ġneighbours":6763,"Ġseconds":6764,"Ġafford":6765,"Woof":6766,"Ġconcer":6767,"Ġmagician":6768,"Ġhitting":6769,"Ġonions":6770,"Ġfact":6771,"ĠStella":6772,"Ġzebras":6773,"ĠRalph":6774,"ĠSnuggles":6775,"Lucy":6776,"ĠWendy":6777,"Ġchip":6778,"Ġheading":6779,"Ġtemperature":6780,"Ġbodies":6781,"ongr":6782,"Ġgrassy":6783,"Ġtails":6784,"Ġincluding":6785,"elia":6786,"Ġwindy":6787,"Ġamong":6788,"ĠBoun":6789,"Ġdiscussed":6790,"ongratul":6791,"pr":6792,"Ġstain":6793,"Ġdollars":6794,"ĠRemember":6795,"Ġleaning":6796,"Ġcenter":6797,"Ġaud":6798,"Ġcoup":6799,"Ġprett":6800,"Ġgasp":6801,"llen":6802,"Ġmuscle":6803,"Ġneatly":6804,"ĠFrog":6805,"Ġheavier":6806,"Ġwoof":6807,"ntil":6808,"Ġhelpers":6809,"Ġpecked":6810,"Ġcoloring":6811,"Ġcounts":6812,"Ġseaw":6813,"Ġrepa":6814,"Ġseparated":6815,"Time":6816,"Ġslices":6817,"Ġblocking":6818,"Ġdecorating":6819,"Ġrewarded":6820,"ĠMickey":6821,"river":6822,"Ġprinting":6823,"Ġenthusi":6824,"Ġwarnings":6825,"Ġgri":6826,"ados":6827,"Ġtreehouse":6828,"Ġcreations":6829,"Ġdreamt":6830,"Ġhoriz":6831,"Ġtunnels":6832,"ĠFrosty":6833,"Ġhesitant":6834,"Ġprettier":6835,"Ġrepaired":6836,"Ġenthusiasm":6837,"Whee":6838,"Ġwag":6839,"Ġmer":6840,"Ġmerry":6841,"Ġmeals":6842,"Ġadult":6843,"Ġshrinking":6844,"Ġembarrass":6845,"ĠNobody":6846,"ĠUntil":6847,"Ġborrowed":6848,"Ġdesigned":6849,"Ġrequested":6850,"Ġtouc":6851,"Ġstudents":6852,"Ġsurroundings":6853,"Ġrobber":6854,"Ġseaweed":6855,"Ġhorizon":6856,"Ġnine":6857,"Ġpraying":6858,"Ġswans":6859,"Ġsnuggle":6860,"ĠQueen":6861,"Oops":6862,"fus":6863,"Ġbows":6864,"Ġplans":6865,"Ġplanning":6866,"Ġfeeding":6867,"Ġdod":6868,"Ġreass":6869,"Ġintrigued":6870,"Ġsuperheroes":6871,"ĠBirthday":6872,"ĠLi":6873,"Ġzipping":6874,"Ġcousin":6875,"Ġcouple":6876,"Ġuns":6877,"Ġthrown":6878,"Ġ10":6879,"ĠFarmer":6880,"yes":6881,"Ġgobbled":6882,"ĠWally":6883,"Ġpotion":6884,"Ġstarfish":6885,"Ġbreathed":6886,"Ġdet":6887,"Ġstool":6888,"Ġalien":6889,"ĠTuna":6890,"iece":6891,"ĠEva":6892,"ĠRy":6893,"ĠRock":6894,"otten":6895,"Ġimagining":6896,"ably":6897,"ĠMeg":6898,"Ġforgiven":6899,"Ġaudience":6900,"ĠOwl":6901,"Ġrecipe":6902,"ccoon":6903,"ition":6904,"Ġraccoon":6905,"Ġpops":6906,"Ġmatters":6907,"Ġspreading":6908,"Ġforks":6909,"Ġtriangles":6910,"Ġbuzzed":6911,"ĠSqueaky":6912,"ĠSince":6913,"Ġblast":6914,"Ġslower":6915,"ĠStar":6916,"Ġvanilla":6917,"Ġavocados":6918,"Ġtouches":6919,"Ġnibb":6920,"Ġwobbled":6921,"Ġdie":6922,"Ġtapped":6923,"Ġsailors":6924,"Ġrustling":6925,"ĠGranny":6926,"Ġtwice":6927,"Ġhonked":6928,"Ġheroes":6929,"ael":6930,"Ġhour":6931,"ĠListen":6932,"Ġaside":6933,"ments":6934,"vil":6935,"Ġropes":6936,"Ġrotten":6937,"Ġflas":6938,"Ġwiping":6939,"Ġreflection":6940,"Ġcond":6941,"Ġgardener":6942,"wk":6943,"eds":6944,"itude":6945,"Ġscamp":6946,"Ġcuriously":6947,"Ġwishing":6948,"Ġthud":6949,"Ġgranted":6950,"Yummy":6951,"Sammy":6952,"Ġgeese":6953,"Tw":6954,"stick":6955,"Ġleast":6956,"Ġage":6957,"Ġbully":6958,"Ġwrink":6959,"ichael":6960,"Ġdelivering":6961,"Ġmarshmallows":6962,"ido":6963,"ĠFire":6964,"Ġstreets":6965,"Ġgrandparents":6966,"Boo":6967,"Ġspikes":6968,"Ġarr":6969,"Ġbaths":6970,"ĠJudy":6971,"Ġspong":6972,"Ġposter":6973,"ĠThose":6974,"Ġnapkins":6975,"Ġnecklaces":6976,"Ġsqueak":6977,"Ġfamiliar":6978,"Ġscraped":6979,"Ġglued":6980,"--":6981,"arrow":6982,"ĠRyan":6983,"Some":6984,"eal":6985,"ĠBack":6986,"Ġposs":6987,"Ġshaped":6988,"Ġtiss":6989,"Ġpins":6990,"Ġchos":6991,"Ġchanging":6992,"Ġdrawn":6993,"Ġchosen":6994,"Ġnood":6995,"Ġplain":6996,"Ġwept":6997,"unched":6998,"ently":6999,"ĠAng":7000,"Ġsparks":7001,"Ġshops":7002,"ertain":7003,"Ġsports":7004,"ĠFido":7005,"Ġskunk":7006,"Ġfocu":7007,"ÅĵMy":7008,"Ġhedgeho":7009,"ĠJanie":7010,"Ġlungs":7011,"Jenny":7012,"Sue":7013,"Ġpeppers":7014,"Ġhopeful":7015,"Ġbells":7016,"ĠZara":7017,"Ġtested":7018,"Alice":7019,"Ġfirefighter":7020,"Ġguests":7021,"ĠSimon":7022,"Our":7023,"Ġsofter":7024,"Ġreason":7025,"Ġfeast":7026,"Ġwarmer":7027,"Ġexpress":7028,"Ġgreeted":7029,"Ġcorre":7030,"ears":7031,"ĠTake":7032,"Ġnur":7033,"Ġtalks":7034,"Ġscrewd":7035,"ĠFriends":7036,"fall":7037,"Ġmoo":7038,"Ġhawk":7039,"Ġplucked":7040,"ugs":7041,"Ġdancers":7042,"ounced":7043,"Ġwhispers":7044,"Ġflavors":7045,"the":7046,"ĠSpl":7047,"ĠMichael":7048,"Ġjoyful":7049,"Ġstands":7050,"Ġlifts":7051,"Ġdived":7052,"Ġpuff":7053,"Ġforgetting":7054,"ĠOnly":7055,"Ġrespected":7056,"Ġfocused":7057,"ausing":7058,"Ġcorners":7059,"ĠOur":7060,"Ġspoonful":7061,"Ġscrewdriver":7062,"Ġmunch":7063,"Ġpens":7064,"irrel":7065,"allowed":7066,"Ġcoc":7067,"Ġswallowed":7068,"Ġremembering":7069,"Ġthroughout":7070,"ĠStay":7071,"ĠMaddy":7072,"Ġmesmerized":7073,"Ġsponge":7074,"Like":7075,"arac":7076,"Ġexplo":7077,"Ġcrew":7078,"Ġsniffs":7079,"Ġresisted":7080,"Sally":7081,"Ġtodd":7082,"Ġearn":7083,"ters":7084,"Ġpeck":7085,"Ġwatering":7086,"ĠJackie":7087,"ĠChris":7088,"ĠAshley":7089,"Ġpours":7090,"cky":7091,"Ġflight":7092,"Ġdropping":7093,"ĠBaa":7094,"Ġwiggle":7095,"Ġsan":7096,"ĠLove":7097,"Ġneare":7098,"aster":7099,"Ġsending":7100,"Ġcraft":7101,"ĠDavey":7102,"Ġslips":7103,"Ġleads":7104,"Ġsewing":7105,"ĠAmelia":7106,"ippy":7107,"ĠMina":7108,"Ġbiting":7109,"...\"":7110,"fly":7111,"Ġoh":7112,"shions":7113,"Ġwarri":7114,"Ġdefe":7115,"Ġpolar":7116,"ĠPippa":7117,"Ġhedgehog":7118,"Ġpanicked":7119,"Ġsank":7120,"Ġwakes":7121,"Ġspins":7122,"Ġsneezing":7123,"Ġwobbly":7124,"Ġrushing":7125,"Ġdresser":7126,"Ġdrawers":7127,"Ġpostman":7128,"Ġoysters":7129,"Ġpuppet":7130,"Ġmate":7131,"Ġrout":7132,"Ġblinking":7133,"ĠUnder":7134,"years":7135,"Ġsharks":7136,"Ġhumans":7137,"Ġfreedom":7138,"Ġtissue":7139,"vant":7140,"ppies":7141,"Ġroars":7142,"Ġstrongest":7143,"Ġproper":7144,"ĠHoney":7145,"ĠLia":7146,"Ġevil":7147,"Ġspices":7148,"Ġgrows":7149,"ĠFlop":7150,"Ġdrivers":7151,"Ġlifting":7152,"Johnny":7153,"mates":7154,"Ġtossed":7155,"aying":7156,"Ġgest":7157,"iment":7158,"Ġcharac":7159,"Ġconfl":7160,"Ġcrashing":7161,"Ġjoining":7162,"Ġtoaster":7163,"Ġstacked":7164,"Ġincreased":7165,"Ġfaded":7166,"Ġwrigg":7167,"Ġrespond":7168,"ĠAli":7169,"Ġquarreling":7170,"Ġpassengers":7171,"while":7172,"Ġaimed":7173,"Ġonward":7174,"Ġswords":7175,"Ġoffic":7176,"eezes":7177,"Ġsquishy":7178,"cake":7179,"Ġnapping":7180,"Ġspat":7181,"Ġsadd":7182,"lets":7183,"child":7184,"Ġamount":7185,"ĠThatÃ¢":7186,"ĠUp":7187,"ĠFroggy":7188,"Ġscampered":7189,"Ġdip":7190,"Ġtables":7191,"Ġpigeons":7192,"Ġtrembled":7193,"ĠPippin":7194,"Every":7195,"ĠthatÃ¢":7196,"Ġscen":7197,"bba":7198,"ÅĵNow":7199,"urprise":7200,"Ġsteady":7201,"Ġpennies":7202,"Ġprove":7203,"ĠLouise":7204,"Ġmaster":7205,"Mine":7206,"roken":7207,"ÅĵMom":7208,"Ġyielded":7209,"ĠSquirrel":7210,"fire":7211,"Ġsy":7212,"Ġdoorway":7213,"Ġgrandchild":7214,"Ġloading":7215,"ĠCurious":7216,"Ġtoddler":7217,"upt":7218,"Ġ2":7219,"ĠWell":7220,"Ġtrot":7221,"Ġrefreshing":7222,"ĠQuick":7223,"Ġleapt":7224,"ino":7225,"Ġwaddled":7226,"Ġdaring":7227,"Ġscored":7228,"ĠFe":7229,"meal":7230,"Ġfits":7231,"ĠPatty":7232,"Ġencourag":7233,"Ġappreciation":7234,"please":7235,"Ġcoral":7236,"Ġocc":7237,"Ġplayroom":7238,"Ġrainy":7239,"Ġlessons":7240,"ĠMean":7241,"rrrrrrrr":7242,"ĠEliz":7243,"Ġties":7244,"onna":7245,"Ġworn":7246,"Ġcosy":7247,"ÅĵWell":7248,"Ġhops":7249,"Ġnervously":7250,"Ġgrandd":7251,"Ġnoodles":7252,"jo":7253,"lves":7254,"Ġpoppies":7255,"Ġangels":7256,"rrr":7257,"Ġoatmeal":7258,"Ġunsure":7259,"rey":7260,"Ġthoughts":7261,"retty":7262,"Ġpreparing":7263,"Ġbehaving":7264,"onies":7265,"Ġreun":7266,"iley":7267,"Ġmonths":7268,"Ġfirmly":7269,"Very":7270,"Ġpound":7271,"Ġslither":7272,"ĠKelly":7273,"Ġtwisty":7274,"ĠMouse":7275,"Ġtablet":7276,"Ġcloudy":7277,"Ġmints":7278,"Ġpumpkins":7279,"Ġfirefly":7280,"ĠBirdy":7281,"Fo":7282,"hew":7283,"Ġcausing":7284,"ĠBecause":7285,"ĠDes":7286,"Ġcushions":7287,"bird":7288,"Ġnuzz":7289,"Ġplaytime":7290,"Ġmanag":7291,"bbling":7292,"iona":7293,"Ġgiggles":7294,"Ġdesigns":7295,"Ġtuck":7296,"ĠIm":7297,"Ġclues":7298,"Ġpolitely":7299,"Ġlaying":7300,"Ġfleas":7301,"Ġshovels":7302,"Ġpassports":7303,"Ġnotes":7304,"Ġconvers":7305,"Ġworrying":7306,"Ġsails":7307,"ĠStill":7308,"ĠMeanwhile":7309,"bage":7310,"ody":7311,"Ġgonna":7312,"ening":7313,"Ġstitches":7314,"ĠElly":7315,"ĠFu":7316,"ĠRay":7317,"Ġcolder":7318,"Ġelf":7319,"Ġgarbage":7320,"Ġstreamers":7321,"Ġsurrendered":7322,"Quick":7323,"Amy":7324,"dress":7325,"ĠMomma":7326,"ÅĵBut":7327,"Ġrains":7328,"Joe":7329,"Ġinj":7330,"antha":7331,"Ġovercome":7332,"Ġbattle":7333,"Ġaction":7334,"Ġreversed":7335,"Ġresults":7336,"Ġsuffering":7337,"Ġtipped":7338,"Ġponies":7339,"Ġshown":7340,"Ġbru":7341,"Ġbehavior":7342,"broken":7343,"Ġnearly":7344,"Ġchopped":7345,"ÅĵIf":7346,"Ġfrowning":7347,"Ġconnected":7348,"Watch":7349,"but":7350,"vroom":7351,"ĠTry":7352,"Ġblocked":7353,"Ġperforming":7354,"ĠPatch":7355,"Ġbreathing":7356,"ĠMaddie":7357,"Ġdefin":7358,"ĠDani":7359,"alloween":7360,"ĠJean":7361,"Ġais":7362,"Ġcoug":7363,"ĠAny":7364,"ĠFiona":7365,"Ġbravest":7366,"Ġbelts":7367,"Ġduckling":7368,"Ġdistract":7369,"Ġignoring":7370,"Ġseller":7371,"Ġsuits":7372,"Ġloops":7373,"Ġechoed":7374,"aby":7375,"ĠHalloween":7376,"Ġscient":7377,"Ġpaintbrush":7378,"Ġbandages":7379,"Ġencouraging":7380,"Ġscientist":7381,"Ġtil":7382,"Ġkittens":7383,"Ġprob":7384,"Ġadults":7385,"ÅĵWhere":7386,"Ġsqueezing":7387,"Ġtwinkled":7388,"Ġcertain":7389,"isc":7390,"ĠAlly":7391,"Ġanger":7392,"Ġguide":7393,"Ġquieter":7394,"Ġhealing":7395,"Ġlicking":7396,"Ġrisks":7397,"Ġprobably":7398,"Ġsou":7399,"Ġcongratul":7400,"ighting":7401,"Ġfinishing":7402,"Ġhairdress":7403,"Ġperformed":7404,"Ġpaths":7405,"Ġcrossing":7406,"Ġcommun":7407,"Ġpays":7408,"issa":7409,"Ġedges":7410,"Ġfrowns":7411,"Ġseashells":7412,"Ġdefinitely":7413,"ppa":7414,"eling":7415,"Ġwobble":7416,"Ġsurv":7417,"Beep":7418,"Ġsnowflakes":7419,"Cl":7420,"Em":7421,"Fl":7422,"cent":7423,"Ġflown":7424,"Ġpackages":7425,"Ġreminding":7426,"Ġsymbols":7427,"Ġwider":7428,"Ġforgiving":7429,"Ġofficers":7430,"Ġhairdresser":7431,"Surprise":7432,"ÅĵOkay":7433,"Ġcleaner":7434,"ĠBubba":7435,"Ġsuggestion":7436,"Ġni":7437,"Ġshady":7438,"Ġslipping":7439,"Ġhanding":7440,"Ġtravels":7441,"Ġpunishment":7442,"Ġthorns":7443,"Ġgesture":7444,"ĠX":7445,"Ġfant":7446,"rie":7447,"Ġsnort":7448,"Ġdrown":7449,"Ġfills":7450,"Ġrepeating":7451,"Ġbrushing":7452,"ĠFlopsy":7453,"Ġconflict":7454,"Bun":7455,"Ġease":7456,"Ġund":7457,"Ġrather":7458,"ĠBow":7459,"Ġkings":7460,"ĠSamantha":7461,"asty":7462,"Ġunw":7463,"ushed":7464,"Ġtighter":7465,"Ġfigures":7466,"Ġsurfing":7467,"undred":7468,"Ġappreciated":7469,"Ġscurry":7470,"Follow":7471,"ibbit":7472,"Ġsoaking":7473,"Ġpuzzled":7474,"Ġcobwebs":7475,"Ġgears":7476,"?!\"":7477,"Ġsever":7478,"ddie":7479,"ĠJaney":7480,"Ġheartbroken":7481,"Ġpurr":7482,"ĠDespite":7483,"cher":7484,"Ġsmallest":7485,"Ġfinal":7486,"Ġsniffing":7487,"Ġtubes":7488,"Ġcottage":7489,"Ġgranddaughter":7490,"Ġseveral":7491,"Ġyel":7492,"rian":7493,"Ġsweetest":7494,"Ġbuses":7495,"steps":7496,"Ġmerma":7497,"Listen":7498,"Ġbless":7499,"Ġdarl":7500,"Ġpeas":7501,"Ġexplorer":7502,"ĠStan":7503,"Ġaddress":7504,"Ġcampfire":7505,"Ġdamaged":7506,"ĠExcitedly":7507,"Ġwarrior":7508,"Ġyelped":7509,"Ġdarlings":7510,"ca":7511,"ĠJax":7512,"dding":7513,"Ġvines":7514,"ÅĵOf":7515,"ĠRuth":7516,"Ġbits":7517,"ĠMarie":7518,"Ġtravelling":7519,"Ġheight":7520,"Ġflipped":7521,"ĠSof":7522,"Ġstopping":7523,"athy":7524,"Ġtricycle":7525,"Ġunderstands":7526,"Ġwhistles":7527,"Ġfootsteps":7528,"Ġrobots":7529,"ĠSnowman":7530,"Ġreunited":7531,"ĠFuzzy":7532,"Mary":7533,"Ġbracelets":7534,"Ġdisturbing":7535,"Ġburying":7536,"Ġbothering":7537,"Ġspits":7538,"ĠKevin":7539,"Ġcotton":7540,"Ġfantastic":7541,"In":7542,"worm":7543,"idey":7544,"Ġbirdhouse":7545,"Ġswo":7546,"ĠGreen":7547,"Ġbelieving":7548,"Ġbanged":7549,"Ġtying":7550,"onse":7551,"lph":7552,"emma":7553,"ĠPu":7554,"Ġresponse":7555,"Goodnight":7556,"Ġcuddles":7557,"Ġresponsib":7558,"ĠSplash":7559,"Ġswollen":7560,"found":7561,"Ġstall":7562,"Ġlapt":7563,"Ġchanges":7564,"Ġwaterfall":7565,"ĠPretty":7566,"ĠSpe":7567,"Ġsmelling":7568,"Ġelbow":7569,"Ġantic":7570,"Ġcrowns":7571,"Ġmagnif":7572,"Ġaccomplished":7573,"Ġinstruments":7574,"Ġsill":7575,"Ġspies":7576,"usty":7577,"ĠJoan":7578,"ÅĵPlease":7579,"Ġcollap":7580,"Ġgenie":7581,"Ġawo":7582,"crow":7583,"Ġknots":7584,"Ġcoach":7585,"Ġcheers":7586,"ĠSpidey":7587,"ails":7588,"ĠStart":7589,"Ġexamining":7590,"Ġsurfboard":7591,"Ġefforts":7592,"ms":7593,"ĠBon":7594,"elie":7595,"Ġraces":7596,"Ġbaskets":7597,"Ġships":7598,"Ġpedaled":7599,"ĠQuackers":7600,"Ġcowboy":7601,"ĠFeeling":7602,"utter":7603,"ĠIzzy":7604,"Ġjars":7605,"Ġmemb":7606,"Ġwhose":7607,"inkle":7608,"ĠPen":7609,"ĠZoomy":7610,"Ġwisely":7611,"Ġencount":7612,"Ġluckily":7613,"Ġoccas":7614,"Ġmembers":7615,"Jen":7616,"Teddy":7617,"abby":7618,"Ġwithin":7619,"ĠEddie":7620,"Ġcomforting":7621,"Ġdriveway":7622,"ĠFreddie":7623,"Ġcorrectly":7624,"Ġlaptop":7625,"iens":7626,"Ġtar":7627,"Ġaliens":7628,"ooky":7629,"ĠFighting":7630,"Ġforests":7631,"Ġguessing":7632,"Ġspells":7633,"Ġlending":7634,"Vroom":7635,"Ġhundred":7636,"Ġmood":7637,"Ġreapp":7638,"Ġsurprising":7639,"Ġconqu":7640,"ĠRain":7641,"Ġsweep":7642,"Ġsuffered":7643,"ĠJonny":7644,"ĠAna":7645,"Ġexcept":7646,"Ġbraver":7647,"acles":7648,"Ġcalmly":7649,"Ġwhispering":7650,"Alright":7651,"Ġpeeled":7652,"Get":7653,"Take":7654,"father":7655,"ĠOkay":7656,"ĠTime":7657,"âĤ¬,":7658,"Ġmailed":7659,"perate":7660,"Ġhumming":7661,"Ġprick":7662,"Ġsupported":7663,"Ġtrotted":7664,"Lisa":7665,"rest":7666,"Ġlent":7667,"Ġnasty":7668,"ĠHolly":7669,"Ġshoo":7670,"Ġtoward":7671,"ĠRud":7672,"ĠDog":7673,"ugging":7674,"Ġpleaded":7675,"attered":7676,"ĠPepper":7677,"Ġexercises":7678,"ĠMegan":7679,"Ġgrip":7680,"Ġreassured":7681,"olph":7682,"isions":7683,"Ġstumble":7684,"ĠAva":7685,"ĠWil":7686,"Ġnewfound":7687,"Ġfins":7688,"Ġbusiness":7689,"Ġafar":7690,"Ġwindowsill":7691,"Ġspills":7692,"ĠElsie":7693,"Ġlies":7694,"Ġplanting":7695,"Ġtwisting":7696,"Ġsqueaked":7697,"Ġdelayed":7698,"aa":7699,"whe":7700,"ĠTy":7701,"ider":7702,"ĠHelen":7703,"Ġweeds":7704,"Ġmarve":7705,"Ġfishes":7706,"Ġnurses":7707,"iscuit":7708,"mered":7709,"Ġmaker":7710,"inger":7711,"ighing":7712,"Ġrays":7713,"Ġscent":7714,"ĠDuck":7715,"ĠPh":7716,"Ġstored":7717,"Ġclassmates":7718,"manda":7719,"Ġsewed":7720,"Ġpupils":7721,"Ġhen":7722,"Ġwasting":7723,"Ġgap":7724,"Ġspy":7725,"Ġalthough":7726,"Ġdecisions":7727,"Ġtasting":7728,"Ġvegg":7729,"Ġaware":7730,"Ġspeeding":7731,"Ġstomp":7732,"Ġactivity":7733,"Ġmasterp":7734,"Ġmaterial":7735,"Ġarranged":7736,"lor":7737,"ĠBong":7738,"ading":7739,"ĠBecky":7740,"Ġglittering":7741,"Ġannoyed":7742,"ĠRudolph":7743,"inted":7744,"ĠSk":7745,"rier":7746,"Ġtreated":7747,"Ġfocus":7748,"Ġteles":7749,"sol":7750,"Joey":7751,"Ġsolving":7752,"ĠPeppa":7753,"ĠMae":7754,"Ġtelescope":7755,"line":7756,"pen":7757,"wise":7758,"Ġicing":7759,"order":7760,"chy":7761,"ĠAmanda":7762,"Ġgoodby":7763,"Ġdiscussing":7764,"Ġnibbled":7765,"Ġsped":7766,"Ġspooky":7767,"Ġbuddy":7768,"Ġtweet":7769,"Ġjoins":7770,"Ġpermitted":7771,"Ġgazing":7772,"Ġrefuse":7773,"Ġawoke":7774,"Ġgoodbyes":7775,"aven":7776,"Ġdot":7777,"Ġdep":7778,"Ġdump":7779,"Ġger":7780,"Ġrin":7781,"Ġdoorbell":7782,"ĠOther":7783,"Ġdespite":7784,"ĠZero":7785,"Ġscarecrow":7786,"Ġwealth":7787,"Ġpandas":7788,"Ġexplains":7789,"Ġpurrs":7790,"ĠSofia":7791,"ĠBongo":7792,"Ġcharge":7793,"Ġdecl":7794,"ĠPin":7795,"Ġteachers":7796,"ĠElle":7797,"Ġhonking":7798,"Ġapologised":7799,"ĠSeeing":7800,"Ġsimply":7801,"ĠDaniel":7802,"Ġcongratulated":7803,"rup":7804,"Ġexch":7805,"Ġtapping":7806,"ÅĵHey":7807,"Ġbelongings":7808,"Ġimages":7809,"Ġtoolbox":7810,"flies":7811,"ĠCrabby":7812,"ĠLiam":7813,"ĠSpeedy":7814,"Mandy":7815,"Ġchilly":7816,"ĠGary":7817,"ĠStitch":7818,"Ġservant":7819,"ĠRufus":7820,"Ġveggies":7821,"owing":7822,"ipes":7823,"illiam":7824,"Ġcovering":7825,"Ġcrystals":7826,"ĠRoger":7827,"Ġstudent":7828,"Ġwiggly":7829,"Ġsweaty":7830,"Ġsyrup":7831,"Ġmasterpiece":7832,"Ġloses":7833,"ilda":7834,"Ġfires":7835,"Ġtroubles":7836,"Ġargum":7837,"Ġencouragement":7838,"ĠPoor":7839,"Ġconcert":7840,"ĠStartled":7841,"Ġuntied":7842,"Ġunfortunately":7843,"acle":7844,"Ġpurpose":7845,"Ġpicnics":7846,"ĠKaty":7847,"Ġtype":7848,"Ġinspired":7849,"Wh":7850,"bec":7851,"Ġhoo":7852,"erk":7853,"Ġbea":7854,"ammy":7855,"ĠBrian":7856,"ĠMother":7857,"elle":7858,"Ġtrans":7859,"anda":7860,"Ġsquaw":7861,"Ġemerged":7862,"ĠRobo":7863,"Ġnibble":7864,"Ġsav":7865,"Ġswap":7866,"Ġthanking":7867,"ĠCle":7868,"ÅĵSee":7869,"ivia":7870,"abra":7871,"Ġconnect":7872,"ĠSatur":7873,"ĠDory":7874,"Ġposit":7875,"Ġconvin":7876,"Ġfoxes":7877,"screen":7878,"Ġpresented":7879,"Ġchocolates":7880,"Ġdisplayed":7881,"Ġinsisting":7882,"Ġmosquitoes":7883,"Ġwounds":7884,"Ġattacked":7885,"Ġbeaming":7886,"Ġcocoon":7887,"Ġanticip":7888,"we":7889,"Ġfailed":7890,"Ġjoked":7891,"ÅĵThe":7892,"Ġwarmly":7893,"Ġscram":7894,"Ġprayers":7895,"Ġorders":7896,"Ġgrandson":7897,"ĠOutside":7898,"Ġrobbers":7899,"Ġoppos":7900,"Leave":7901,"Ġtarget":7902,"rily":7903,"ats":7904,"ĠWelcome":7905,"Ġque":7906,"Ġvibr":7907,"Ġvehicles":7908,"Ġsternly":7909,"Ġmermaid":7910,"ĠSe":7911,"Ġseals":7912,"Ġcleared":7913,"Ġterrified":7914,"Ġgrandfather":7915,"Ġbackpacks":7916,"Ġincreasing":7917,"ĠTessa":7918,"ĠElsa":7919,"Ġastronauts":7920,"Ġconversation":7921,"Ġscurrying":7922,"Ġtransf":7923,"what":7924,"Ġclerk":7925,"Ġnodding":7926,"ĠPing":7927,"Ġmagazines":7928,"Ġflaps":7929,"Ġcustomers":7930,"Ġaim":7931,"ĠWilliam":7932,"ĠPick":7933,"Ġvisitors":7934,"Ġlipstick":7935,"Ġwrinkled":7936,"ĠAngel":7937,"ĠSaturday":7938,"Ġopposite":7939,"five":7940,"Ġbitten":7941,"ĠSmo":7942,"Ġflips":7943,"aula":7944,"Ġtwenty":7945,"Ġsunscreen":7946,"Ġdiso":7947,"ĠFlo":7948,"Ġrescuing":7949,"Ġtires":7950,"Ġmatey":7951,"sm":7952,"its":7953,"ooking":7954,"Ġmommies":7955,"Ġwhoo":7956,"Ġpeep":7957,"Ġends":7958,"Ġtidied":7959,"ĠZee":7960,"Ġturtles":7961,"Ġotters":7962,"Ġtaped":7963,"ĠNana":7964,"Ġnearest":7965,"Ġanticipation":7966,"Ġsheets":7967,"ĠMan":7968,"ĠWin":7969,"Ġmanners":7970,"Ġuntie":7971,"Ġdressing":7972,"Ġjud":7973,"Ġdragonfly":7974,"Ġzooms":7975,"Ġrats":7976,"Ġadmiration":7977,"Ġexperienced":7978,"Ġencountered":7979,"Ġqueens":7980,"Dear":7981,"Mr":7982,"Ġrely":7983,"Ġloc":7984,"Ġdangers":7985,"Ġdisc":7986,"Ġadds":7987,"ĠLiza":7988,"ĠAuntie":7989,"Ġtilted":7990,"gain":7991,"Ġblond":7992,"ÅĵA":7993,"Ġtesting":7994,"Ġcrawls":7995,"Ġlabels":7996,"Ġaisle":7997,"Ġsurvive":7998,"pit":7999}